{
  "version": "1.0",
  "truncation": null,
  "padding": null,
  "added_tokens": [
    {
      "id": 0,
      "content": "<|endoftext|>",
      "single_word": false,
      "lstrip": false,
      "rstrip": false,
      "normalized": false,
      "special": true
    },
    {
      "id": 1,
      "content": "<|user|>",
      "single_word": false,
      "lstrip": false,
      "rstrip": false,
      "normalized": false,
      "special": true
    },
    {
      "id": 2,
      "content": "<|assistant|>",
      "single_word": false,
      "lstrip": false,
      "rstrip": false,
      "normalized": false,
      "special": true
    }
  ],
  "normalizer": null,
  "pre_tokenizer": {
    "type": "Whitespace"
  },
  "post_processor": null,
  "decoder": null,
  "model": {
    "type": "BPE",
    "dropout": null,
    "unk_token": null,
    "continuing_subword_prefix": null,
    "end_of_word_suffix": null,
    "fuse_unk": false,
    "byte_fallback": false,
    "ignore_merges": false,
    "vocab": {
      "<|endoftext|>": 0,
      "<|user|>": 1,
      "<|assistant|>": 2,
      "!": 3,
      "$": 4,
      "%": 5,
      "&": 6,
      "'": 7,
      "(": 8,
      ")": 9,
      "*": 10,
      "+": 11,
      ",": 12,
      "-": 13,
      ".": 14,
      "/": 15,
      "0": 16,
      "1": 17,
      "2": 18,
      "3": 19,
      "4": 20,
      "5": 21,
      "6": 22,
      "7": 23,
      "8": 24,
      "9": 25,
      ":": 26,
      ";": 27,
      "<": 28,
      "=": 29,
      ">": 30,
      "?": 31,
      "@": 32,
      "A": 33,
      "B": 34,
      "C": 35,
      "D": 36,
      "E": 37,
      "F": 38,
      "G": 39,
      "H": 40,
      "I": 41,
      "J": 42,
      "K": 43,
      "L": 44,
      "M": 45,
      "N": 46,
      "O": 47,
      "P": 48,
      "Q": 49,
      "R": 50,
      "S": 51,
      "T": 52,
      "U": 53,
      "V": 54,
      "W": 55,
      "X": 56,
      "Y": 57,
      "Z": 58,
      "[": 59,
      "]": 60,
      "^": 61,
      "_": 62,
      "`": 63,
      "a": 64,
      "b": 65,
      "c": 66,
      "d": 67,
      "e": 68,
      "f": 69,
      "g": 70,
      "h": 71,
      "i": 72,
      "j": 73,
      "k": 74,
      "l": 75,
      "m": 76,
      "n": 77,
      "o": 78,
      "p": 79,
      "q": 80,
      "r": 81,
      "s": 82,
      "t": 83,
      "u": 84,
      "v": 85,
      "w": 86,
      "x": 87,
      "y": 88,
      "z": 89,
      "{": 90,
      "|": 91,
      "}": 92,
      "~": 93,
      "": 94,
      "¡": 95,
      "£": 96,
      "¥": 97,
      "§": 98,
      "«": 99,
      "¬": 100,
      "®": 101,
      "°": 102,
      "±": 103,
      "²": 104,
      "³": 105,
      "·": 106,
      "»": 107,
      "¼": 108,
      "½": 109,
      "¾": 110,
      "¿": 111,
      "É": 112,
      "×": 113,
      "æ": 114,
      "ç": 115,
      "è": 116,
      "é": 117,
      "ê": 118,
      "ë": 119,
      "ì": 120,
      "ö": 121,
      "÷": 122,
      "ü": 123,
      "ā": 124,
      "ō": 125,
      "ǎ": 126,
      "ǐ": 127,
      "ǔ": 128,
      "ə": 129,
      "ɪ": 130,
      "ɹ": 131,
      "ˈ": 132,
      "˚": 133,
      "̦": 134,
      "͡": 135,
      "Δ": 136,
      "Π": 137,
      "Σ": 138,
      "α": 139,
      "β": 140,
      "θ": 141,
      "λ": 142,
      "ν": 143,
      "π": 144,
      "σ": 145,
      "τ": 146,
      "क": 147,
      "प": 148,
      "म": 149,
      "्": 150,
      "।": 151,
      "१": 152,
      "२": 153,
      "ં": 154,
      "ઃ": 155,
      "અ": 156,
      "આ": 157,
      "ઇ": 158,
      "ઈ": 159,
      "ઉ": 160,
      "ઊ": 161,
      "ઋ": 162,
      "ઍ": 163,
      "એ": 164,
      "ઐ": 165,
      "ઑ": 166,
      "ઓ": 167,
      "ઔ": 168,
      "ક": 169,
      "ખ": 170,
      "ગ": 171,
      "ઘ": 172,
      "ચ": 173,
      "છ": 174,
      "જ": 175,
      "ઝ": 176,
      "ઞ": 177,
      "ટ": 178,
      "ઠ": 179,
      "ડ": 180,
      "ઢ": 181,
      "ણ": 182,
      "ત": 183,
      "થ": 184,
      "દ": 185,
      "ધ": 186,
      "ન": 187,
      "પ": 188,
      "ફ": 189,
      "બ": 190,
      "ભ": 191,
      "મ": 192,
      "ય": 193,
      "ર": 194,
      "લ": 195,
      "ળ": 196,
      "વ": 197,
      "શ": 198,
      "ષ": 199,
      "સ": 200,
      "હ": 201,
      "ા": 202,
      "િ": 203,
      "ી": 204,
      "ુ": 205,
      "ૂ": 206,
      "ૃ": 207,
      "ૅ": 208,
      "ે": 209,
      "ૈ": 210,
      "ૉ": 211,
      "ો": 212,
      "ૌ": 213,
      "્": 214,
      "૦": 215,
      "૧": 216,
      "૨": 217,
      "૩": 218,
      "૪": 219,
      "૫": 220,
      "૬": 221,
      "૭": 222,
      "૮": 223,
      "૯": 224,
      "​": 225,
      "‍": 226,
      "‐": 227,
      "–": 228,
      "—": 229,
      "―": 230,
      "‘": 231,
      "’": 232,
      "“": 233,
      "”": 234,
      "•": 235,
      "…": 236,
      "⁄": 237,
      "⁴": 238,
      "⁵": 239,
      "⁷": 240,
      "⁻": 241,
      "₁": 242,
      "₂": 243,
      "€": 244,
      "℃": 245,
      "℉": 246,
      "⅛": 247,
      "←": 248,
      "→": 249,
      "⇒": 250,
      "−": 251,
      "√": 252,
      "∞": 253,
      "∠": 254,
      "∧": 255,
      "∨": 256,
      "∪": 257,
      "≠": 258,
      "⋅": 259,
      "█": 260,
      "★": 261,
      "♭": 262,
      "你": 263,
      "夢": 264,
      "好": 265,
      "月": 266,
      "기": 267,
      "보": 268,
      "장": 269,
      "": 270,
      "👇": 271,
      "👌": 272,
      "😀": 273,
      "😉": 274,
      "😎": 275,
      "મા": 276,
      "ને": 277,
      "વા": 278,
      "્ર": 279,
      "છે": 280,
      "્ય": 281,
      "ના": 282,
      "કર": 283,
      "ની": 284,
      "ાર": 285,
      "અને": 286,
      "માં": 287,
      "તે": 288,
      "ર્": 289,
      "ું": 290,
      "સ્": 291,
      "કે": 292,
      "ટે": 293,
      "ક્": 294,
      "નો": 295,
      "પ્ર": 296,
      "વિ": 297,
      "તા": 298,
      "સા": 299,
      "માટે": 300,
      "રી": 301,
      "રા": 302,
      "જે": 303,
      "લા": 304,
      "થી": 305,
      "કો": 306,
      "િત": 307,
      "ન્": 308,
      "સં": 309,
      "કા": 310,
      "પર": 311,
      "વે": 312,
      "કાર": 313,
      "કરવા": 314,
      "યો": 315,
      "એક": 316,
      "મે": 317,
      "નું": 318,
      "તિ": 319,
      "વી": 320,
      "ત્": 321,
      "્યા": 322,
      "પા": 323,
      "િય": 324,
      "વો": 325,
      "ક્ષ": 326,
      "ંગ": 327,
      "આપ": 328,
      "િક": 329,
      "લે": 330,
      "જા": 331,
      "કરો": 332,
      "કરી": 333,
      "યોગ": 334,
      "લો": 335,
      "ટા": 336,
      "હો": 337,
      "વધ": 338,
      "સમ": 339,
      "રો": 340,
      "ઉપ": 341,
      "ાય": 342,
      "બના": 343,
      "વર્": 344,
      "જો": 345,
      "તો": 346,
      "ત્ર": 347,
      "તી": 348,
      "રે": 349,
      "નિ": 350,
      "દા": 351,
      "હે": 352,
      "શકે": 353,
      "ણી": 354,
      "ગ્ર": 355,
      "ઉપયોગ": 356,
      "ડે": 357,
      "સુ": 358,
      "વ્ય": 359,
      "મો": 360,
      "સ્ટ": 361,
      "ભા": 362,
      "લી": 363,
      "્સ": 364,
      "કરે": 365,
      "શા": 366,
      "િયા": 367,
      "થે": 368,
      "ક્ર": 369,
      "શ્": 370,
      "સે": 371,
      "સાથે": 372,
      "જી": 373,
      "દ્": 374,
      "શે": 375,
      "િંગ": 376,
      "માન": 377,
      "્યો": 378,
      "પૂ": 379,
      "વધુ": 380,
      "તેમ": 381,
      "ચે": 382,
      "રૂ": 383,
      "શો": 384,
      "્ટ": 385,
      "ણા": 386,
      "વવા": 387,
      "સર": 388,
      "ારે": 389,
      "રીતે": 390,
      "પણ": 391,
      "અન": 392,
      "થવા": 393,
      "સ્ત": 394,
      "ચા": 395,
      "લ્": 396,
      "ંત": 397,
      "ન્ટ": 398,
      "સ્થ": 399,
      "બે": 400,
      "્યુ": 401,
      "અથવા": 402,
      ".?": 403,
      "વું": 404,
      "ડી": 405,
      "બા": 406,
      "કી": 407,
      "ખા": 408,
      "બનાવો": 409,
      "ખો": 410,
      "બ્": 411,
      "વામાં": 412,
      "પ્": 413,
      "ટી": 414,
      "ડા": 415,
      "બી": 416,
      "પો": 417,
      "મુ": 418,
      "્યારે": 419,
      "સિ": 420,
      "ધી": 421,
      "ગ્રા": 422,
      "તમા": 423,
      "પે": 424,
      "શન": 425,
      "થાય": 426,
      "પૂર્": 427,
      "પરિ": 428,
      "સૂ": 429,
      "લિ": 430,
      "હા": 431,
      "ણે": 432,
      "ંધ": 433,
      "દર": 434,
      "ક્તિ": 435,
      "સો": 436,
      "ગી": 437,
      "હોય": 438,
      "ગો": 439,
      "પુ": 440,
      "્રે": 441,
      "ડિ": 442,
      "ઉત્": 443,
      "શી": 444,
      "યા": 445,
      "હી": 446,
      "ડેટા": 447,
      "મૂ": 448,
      "આવે": 449,
      "પ્રો": 450,
      "ળા": 451,
      "આપે": 452,
      "રણ": 453,
      "શોધ": 454,
      "બો": 455,
      "સાર": 456,
      "મી": 457,
      "ક્ય": 458,
      "તરી": 459,
      "કરવામાં": 460,
      "ઇન": 461,
      "પી": 462,
      "યુ": 463,
      "ારો": 464,
      "રિ": 465,
      "સમા": 466,
      "શું": 467,
      "દી": 468,
      "જોઈ": 469,
      "ધા": 470,
      "દો": 471,
      "પરા": 472,
      "ક્ષણ": 473,
      "વિશ્": 474,
      "કોઈ": 475,
      "તેના": 476,
      "દે": 477,
      "ંચ": 478,
      "ળી": 479,
      "જન": 480,
      "ચ્": 481,
      "મિ": 482,
      "પ્રા": 483,
      "પૂર્ણ": 484,
      "ગા": 485,
      "ષ્ટ": 486,
      "સમય": 487,
      "કર્": 488,
      "મદ": 489,
      "ક્રિયા": 490,
      "દુ": 491,
      "ક્ટ": 492,
      "જોઈએ": 493,
      "અનુ": 494,
      "વાક્ય": 495,
      "મ્": 496,
      "હતો": 497,
      "ઓને": 498,
      "નીચે": 499,
      "શબ્": 500,
      "ફે": 501,
      "મને": 502,
      "સૂચ": 503,
      "થઈ": 504,
      "છો": 505,
      "ગ્રાહ": 506,
      "છી": 507,
      "તર": 508,
      "વિશે": 509,
      "કૃ": 510,
      "કેટ": 511,
      "સી": 512,
      "સૌ": 513,
      "ક્ષમ": 514,
      "દ્વા": 515,
      "ટો": 516,
      "તું": 517,
      "જરૂ": 518,
      "દ્ધ": 519,
      "હતી": 520,
      "દ્વારા": 521,
      "ડો": 522,
      "વાની": 523,
      "ચાર": 524,
      "મક": 525,
      "ષણ": 526,
      "કરીને": 527,
      "વન": 528,
      "મદદ": 529,
      "્યાં": 530,
      "તેની": 531,
      "વ્યક્તિ": 532,
      "રહ": 533,
      "જ્યારે": 534,
      "ન્ડ": 535,
      "કાય": 536,
      "હિત": 537,
      "કાર્ય": 538,
      "મહ": 539,
      "તમે": 540,
      "વર્ણ": 541,
      "જૂ": 542,
      "દાન": 543,
      "ષ્": 544,
      "બનાવવા": 545,
      "સુધી": 546,
      "ભૂ": 547,
      "હું": 548,
      "દ્ર": 549,
      "લોકો": 550,
      "ફો": 551,
      "ગે": 552,
      "ાર્": 553,
      "વાર": 554,
      "કરવાની": 555,
      "ત્મક": 556,
      "ફા": 557,
      "તેને": 558,
      "ધાર": 559,
      "કની": 560,
      "નામ": 561,
      "ત્વ": 562,
      "વિધ": 563,
      "માન્ય": 564,
      "સૌથી": 565,
      "સર્": 566,
      "વ્યવ": 567,
      "તેમના": 568,
      "કરણ": 569,
      "જ્": 570,
      "ઘટા": 571,
      "્યું": 572,
      "શિ": 573,
      "સ્થા": 574,
      "બંધ": 575,
      "સ્વ": 576,
      "કુ": 577,
      "ન્સ": 578,
      "ચો": 579,
      "ર્થ": 580,
      "્રો": 581,
      "વિક": 582,
      "આપો": 583,
      "તુ": 584,
      "બિ": 585,
      "ટર": 586,
      "દર્": 587,
      "માર્": 588,
      "વેશ": 589,
      "જેમ": 590,
      "ક્સ": 591,
      "માંથી": 592,
      "ગુ": 593,
      "ભાવ": 594,
      "તેઓ": 595,
      "રહે": 596,
      "પાદ": 597,
      "આવ": 598,
      "વર્ણન": 599,
      "પ્રતિ": 600,
      "ઓળ": 601,
      "અસર": 602,
      "વર્ત": 603,
      "નથી": 604,
      "ફર": 605,
      "નિય": 606,
      "હાર": 607,
      "કિ": 608,
      "દિ": 609,
      "તરીકે": 610,
      "નિક": 611,
      "મ્પ": 612,
      "અન્ય": 613,
      "કેવી": 614,
      "વપરા": 615,
      "ખ્યા": 616,
      "કારણ": 617,
      "ટિ": 618,
      "સમાવેશ": 619,
      "ચી": 620,
      "ત્રણ": 621,
      "્રા": 622,
      "ઇટ": 623,
      "પ્રદાન": 624,
      "જુ": 625,
      "મત": 626,
      "ઉત્પાદ": 627,
      "ળો": 628,
      "સામાન્ય": 629,
      "ઓની": 630,
      "વિવિધ": 631,
      "જવા": 632,
      "કં": 633,
      "ગત": 634,
      "શકાય": 635,
      "માણ": 636,
      "જરૂર": 637,
      "રાખ": 638,
      "છું": 639,
      "ફિ": 640,
      "વચ્": 641,
      "તમારા": 642,
      "ચાલ": 643,
      "વચ્ચે": 644,
      "ર્જા": 645,
      "જીવન": 646,
      "મનો": 647,
      "પ્રક્રિયા": 648,
      "લાં": 649,
      "પ્રે": 650,
      "વૃ": 651,
      "દૂ": 652,
      "નિર્": 653,
      "સાય": 654,
      "બદ": 655,
      "લખો": 656,
      "કાશ": 657,
      "રચ": 658,
      "વિશ્વ": 659,
      "શબ્દ": 660,
      "જેમાં": 661,
      "વપરાશ": 662,
      "ઝા": 663,
      "ારી": 664,
      "હતું": 665,
      "સિસ્ટ": 666,
      "તેમની": 667,
      "નવી": 668,
      "ઊર્જા": 669,
      "જેવા": 670,
      "કામ": 671,
      "તિઓ": 672,
      "ગ્રી": 673,
      "પસં": 674,
      "પસંદ": 675,
      "ળતા": 676,
      "ર્સ": 677,
      "મહત્વ": 678,
      "એઆ": 679,
      "સમજા": 680,
      "્યાન": 681,
      "છા": 682,
      "વર": 683,
      "ટ્સ": 684,
      "નીચેના": 685,
      "સ્ટો": 686,
      "ફરી": 687,
      "પછી": 688,
      "દરે": 689,
      "નં": 690,
      "પ્રકાર": 691,
      "કર્તા": 692,
      "એન": 693,
      "વ્યા": 694,
      "ધ્યાન": 695,
      "ઉદા": 696,
      "મિત": 697,
      "અનુભ": 698,
      "નેટ": 699,
      "હતા": 700,
      "અભ": 701,
      "ઘટ": 702,
      "કરતા": 703,
      "મુખ": 704,
      "હરણ": 705,
      "જના": 706,
      "જિ": 707,
      "મં": 708,
      "સેવા": 709,
      "ઇન્ટ": 710,
      "અલ": 711,
      "સ્પ": 712,
      "00": 713,
      "ષ્ઠ": 714,
      "સ્તુ": 715,
      "ક્ત": 716,
      "મેલ": 717,
      "કમ્પ": 718,
      "સૂચિ": 719,
      "ઉદાહરણ": 720,
      "ભવિ": 721,
      "પની": 722,
      "કમ્પ્યુ": 723,
      "ત્યારે": 724,
      "ંતર": 725,
      "સ્થિત": 726,
      "રચના": 727,
      "વરણ": 728,
      "યોગ્ય": 729,
      "આપેલ": 730,
      "ગ્રાહક": 731,
      "ગર": 732,
      "વપરાશકર્તા": 733,
      "ઝડ": 734,
      "તકની": 735,
      "હેર": 736,
      "ેલા": 737,
      "વેબ": 738,
      "ડવા": 739,
      "પ્રાણી": 740,
      "દરેક": 741,
      "થો": 742,
      "કરવું": 743,
      "શ્રે": 744,
      "અર્થ": 745,
      "પડ": 746,
      "ઓળખ": 747,
      "રંગ": 748,
      "ઇલ": 749,
      "ષા": 750,
      "મુખ્ય": 751,
      "ંક": 752,
      "ર્ડ": 753,
      "વાદ": 754,
      "મ્સ": 755,
      "એઆઈ": 756,
      "પ્ત": 757,
      "તરફ": 758,
      "ક્ષા": 759,
      "પગ": 760,
      "સંબંધ": 761,
      "ભાષા": 762,
      "હવા": 763,
      "તમારી": 764,
      "ચર": 765,
      "માહિત": 766,
      "ફાય": 767,
      "તં": 768,
      "વાર્": 769,
      "નિંગ": 770,
      "કારક": 771,
      "ૂહ": 772,
      "પોતા": 773,
      "કરવો": 774,
      "સહ": 775,
      "દિવ": 776,
      "વસ્તુ": 777,
      "શબ્દો": 778,
      "વૈ": 779,
      "ક્ષમતા": 780,
      "બર": 781,
      "શરૂ": 782,
      "ંતુ": 783,
      "બલ": 784,
      "લું": 785,
      "બુ": 786,
      "ખૂ": 787,
      "ભાવના": 788,
      "ભાગ": 789,
      "રોગ": 790,
      "માહિતી": 791,
      "મહત્વપૂર્ણ": 792,
      "પુટ": 793,
      "મોડે": 794,
      "હીં": 795,
      "નની": 796,
      "ણો": 797,
      "સાહ": 798,
      "લેષણ": 799,
      "ગોરિ": 800,
      "અં": 801,
      "શક્તિ": 802,
      "ત્રો": 803,
      "સાધ": 804,
      "વાર્તા": 805,
      "ાં": 806,
      "શામેલ": 807,
      "ચિત": 808,
      "ગ્રાહકો": 809,
      "મોટા": 810,
      "સમજાવો": 811,
      "મૂલ": 812,
      "ક્ષે": 813,
      "ગોરિધ": 814,
      "પાસ": 815,
      "પરિણા": 816,
      "થા": 817,
      "જ્ઞ": 818,
      "લાઇન": 819,
      "મશી": 820,
      "બં": 821,
      "પહો": 822,
      "મેળ": 823,
      "દ્ય": 824,
      "લેવા": 825,
      "સામ": 826,
      "એસ": 827,
      "કૂ": 828,
      "જ્ઞા": 829,
      "સુર": 830,
      "લ્ગોરિધ": 831,
      "થમ": 832,
      "શ્ય": 833,
      "ઘણી": 834,
      "પરંતુ": 835,
      "ધરા": 836,
      "વધાર": 837,
      "તેણે": 838,
      "લના": 839,
      "ત્ય": 840,
      "લાક": 841,
      "તિક": 842,
      "કાસ": 843,
      "બન": 844,
      "પ્લિ": 845,
      "in": 846,
      "વેર": 847,
      "રસ": 848,
      "કંપની": 849,
      "પાંચ": 850,
      "સ્ટે": 851,
      "અમે": 852,
      "આવી": 853,
      "ર્મ": 854,
      "કારણે": 855,
      "ગ્": 856,
      "ફ્ટ": 857,
      "શીખ": 858,
      "તેમાં": 859,
      "કાર્યો": 860,
      "પ્લિકે": 861,
      "સમસ": 862,
      "ગળ": 863,
      "શક": 864,
      "એપ્લિકે": 865,
      "10": 866,
      "નને": 867,
      "કનો": 868,
      "જેવી": 869,
      "તેનો": 870,
      "સમસ્યા": 871,
      "કેન્": 872,
      "તમને": 873,
      "કરવી": 874,
      "રૂપ": 875,
      "લેખ": 876,
      "નુ": 877,
      "જૂરી": 878,
      "ર્નિંગ": 879,
      "હોઈ": 880,
      "વિશ્લેષણ": 881,
      "પાણી": 882,
      "સંભવિ": 883,
      "સંભવિત": 884,
      "સક્ષમ": 885,
      "કાર્": 886,
      "વધારો": 887,
      "નિર્ણ": 888,
      "બનાવે": 889,
      "મારી": 890,
      "ફરીથી": 891,
      "પહે": 892,
      "લોક": 893,
      "તાં": 894,
      "ફેર": 895,
      "સફ": 896,
      "હિ": 897,
      "દ્ધિ": 898,
      "ખૂબ": 899,
      "ભાર": 900,
      "આપવા": 901,
      "મંજૂરી": 902,
      "ત્રિ": 903,
      "ડિઝા": 904,
      "ચિ": 905,
      "ગતિ": 906,
      "સંખ્યા": 907,
      "ઓમાં": 908,
      "રહ્યો": 909,
      "ક્ષિત": 910,
      "ત્યાં": 911,
      "ખર્": 912,
      "ફાયદા": 913,
      "સામગ્રી": 914,
      "જાય": 915,
      "19": 916,
      "વૃત્": 917,
      "સેસ": 918,
      "ડિઝાઇન": 919,
      "સરળ": 920,
      "પ્રોત્": 921,
      "લર્નિંગ": 922,
      "સ્થિતિ": 923,
      "દૂર": 924,
      "બંને": 925,
      "આનં": 926,
      "વર્ષ": 927,
      "ટૂ": 928,
      "અનુભવ": 929,
      "જરૂરી": 930,
      "ટિંગ": 931,
      "વત": 932,
      "દિવસ": 933,
      "આધાર": 934,
      "મશીન": 935,
      "નક્": 936,
      "પ્રકાશ": 937,
      "મર": 938,
      "વાસ": 939,
      "મળ": 940,
      "માઇ": 941,
      "ંડ": 942,
      "શિય": 943,
      "આનંદ": 944,
      "વર્ગી": 945,
      "પ્રશ્": 946,
      "ઇડ": 947,
      "સારી": 948,
      "તેમને": 949,
      "આઉ": 950,
      "આધ": 951,
      "વિકાસ": 952,
      "સિસ્ટમ": 953,
      "કેન્દ્ર": 954,
      "લ્સ": 955,
      "જબ": 956,
      "ર્ટ": 957,
      "કારા": 958,
      "સુધ": 959,
      "ભૂત": 960,
      "આગા": 961,
      "કમ્પ્યુટર": 962,
      "વર્ક": 963,
      "નમાં": 964,
      "રહી": 965,
      "આઉટ": 966,
      "નક્કી": 967,
      "ષક": 968,
      "પ્રવૃત્": 969,
      "પર્યા": 970,
      "જેક્ટ": 971,
      "ખરી": 972,
      "્રી": 973,
      "જ્યાં": 974,
      "સાઇટ": 975,
      "ગણ": 976,
      "વિચાર": 977,
      "પૃ": 978,
      "ંભ": 979,
      "રાજ": 980,
      "ભર": 981,
      "ડિયા": 982,
      "લેટ": 983,
      "લ્ડ": 984,
      "મારા": 985,
      "શાં": 986,
      "એન્": 987,
      "20": 988,
      "કીય": 989,
      "શકો": 990,
      "ઘણા": 991,
      "વખ": 992,
      "પાસે": 993,
      "ઉમે": 994,
      "ન્યુ": 995,
      "સિક": 996,
      "શ્રેષ્ઠ": 997,
      "ખર્ચ": 998,
      "કારાત્મક": 999,
      "ક્રમ": 1000,
      "ઓના": 1001,
      "ઊં": 1002,
      "નવા": 1003,
      "અપ": 1004,
      "નહીં": 1005,
      "ઓફર": 1006,
      "લાગ": 1007,
      "કારો": 1008,
      "પ્રથમ": 1009,
      "પ્રોગ્રા": 1010,
      "આપી": 1011,
      "સ્વા": 1012,
      "ખાતરી": 1013,
      "સાધનો": 1014,
      "આવ્ય": 1015,
      "કૃત": 1016,
      "અસરકારક": 1017,
      "શિક્ષણ": 1018,
      "્રિ": 1019,
      "સુધાર": 1020,
      "ઝડપ": 1021,
      "ધ્ય": 1022,
      "સમાન": 1023,
      "ટેડ": 1024,
      "વલ": 1025,
      "સાદ": 1026,
      "ઓનો": 1027,
      "વાતા": 1028,
      "મેન્ટ": 1029,
      "વાત": 1030,
      "વાન": 1031,
      "ર્ક": 1032,
      "સલા": 1033,
      "જોખ": 1034,
      "ાર્થી": 1035,
      "યું": 1036,
      "વિષ": 1037,
      "વિધા": 1038,
      "ઉત્પાદન": 1039,
      "ફ્ટવેર": 1040,
      "વિદ્ય": 1041,
      "લક્ષ": 1042,
      "દેશ": 1043,
      "વિદ્યાર્થી": 1044,
      "પદ": 1045,
      "કલ": 1046,
      "નલાઇન": 1047,
      "ઇન્": 1048,
      "માર્ગ": 1049,
      "ઉદ": 1050,
      "વાતાવરણ": 1051,
      "ટેક્": 1052,
      "વાનું": 1053,
      "લ્પ": 1054,
      "દૃ": 1055,
      "સ્તા": 1056,
      "ઇન્ટર": 1057,
      "er": 1058,
      "ઝડપથી": 1059,
      "કેલ": 1060,
      "તાપ": 1061,
      "પરી": 1062,
      "પૂર્વ": 1063,
      "પાત્ર": 1064,
      "સમજ": 1065,
      "યે": 1066,
      "વેબસાઇટ": 1067,
      "રિક": 1068,
      "કેટલાક": 1069,
      "મોડેલ": 1070,
      "ન્ય": 1071,
      "પરિવર્ત": 1072,
      "તેનું": 1073,
      "સ્થાપ": 1074,
      "સૂર": 1075,
      "આગળ": 1076,
      "ટકા": 1077,
      "આરોગ": 1078,
      "આરોગ્ય": 1079,
      "પ્ટ": 1080,
      "આપવામાં": 1081,
      "વિના": 1082,
      "સંશોધ": 1083,
      "બીજા": 1084,
      "અભિ": 1085,
      "મળી": 1086,
      "ટલ": 1087,
      "ષ્ય": 1088,
      "શિયલ": 1089,
      "કુદર": 1090,
      "ભો": 1091,
      "લઈ": 1092,
      "છીએ": 1093,
      "પહોંચ": 1094,
      "સેટ": 1095,
      "ફૂ": 1096,
      "ણીય": 1097,
      "પુન": 1098,
      "કેન્દ્રિત": 1099,
      "ષ્ટિ": 1100,
      "સની": 1101,
      "રહ્યા": 1102,
      "રું": 1103,
      "ંમત": 1104,
      "વિચ": 1105,
      "કયા": 1106,
      "વ્યક્તિગત": 1107,
      "અવ": 1108,
      "કુદરતી": 1109,
      "કર્યું": 1110,
      "વિસ્ત": 1111,
      "કસ": 1112,
      "વાળા": 1113,
      "કપ": 1114,
      "વધુમાં": 1115,
      "આગાહી": 1116,
      "વણી": 1117,
      "સ્ટોર": 1118,
      "ખી": 1119,
      "બધા": 1120,
      "સોફ્ટવેર": 1121,
      "તાઓ": 1122,
      "ચાલિત": 1123,
      "આપણે": 1124,
      "ઓછા": 1125,
      "લોજી": 1126,
      "ફ્": 1127,
      "શોધો": 1128,
      "ત્રી": 1129,
      "નિશ્": 1130,
      "નાના": 1131,
      "સંબંધિત": 1132,
      "વાનો": 1133,
      "પરાંત": 1134,
      "તદુ": 1135,
      "તદુપરાંત": 1136,
      "વાક્યને": 1137,
      "વવામાં": 1138,
      "તફા": 1139,
      "પાર": 1140,
      "ટ્રે": 1141,
      "સમુ": 1142,
      "કૃતિ": 1143,
      "તંત્ર": 1144,
      "દુર": 1145,
      "રોબો": 1146,
      "ત્રિત": 1147,
      "ઘટાડવા": 1148,
      "કોણ": 1149,
      "પદ્ધ": 1150,
      "ન્ન": 1151,
      "શૈ": 1152,
      "સમી": 1153,
      "ડવામાં": 1154,
      "ફી": 1155,
      "ત્તા": 1156,
      "પ્રિય": 1157,
      "ચોક્": 1158,
      "ગયો": 1159,
      "સુધારો": 1160,
      "ચોક્કસ": 1161,
      "કરવાનો": 1162,
      "માનવ": 1163,
      "પુસ્ત": 1164,
      "થ્": 1165,
      "દેશો": 1166,
      "યાદી": 1167,
      "ધિ": 1168,
      "સ્વી": 1169,
      "આધારિત": 1170,
      "શહેર": 1171,
      "ાયક": 1172,
      "તકનીકી": 1173,
      "જર": 1174,
      "__": 1175,
      "કિંગ": 1176,
      "ઓળખો": 1177,
      "વર્ગીકૃત": 1178,
      "ધો": 1179,
      "યોજના": 1180,
      "કળ": 1181,
      "પ્રોગ્રામ": 1182,
      "તુલના": 1183,
      "નના": 1184,
      "સાહિત": 1185,
      "સ્તર": 1186,
      "આઇ": 1187,
      "ક્રિ": 1188,
      "ડાય": 1189,
      "તૈ": 1190,
      "માર્કેટ": 1191,
      "કરવાનું": 1192,
      "મૂળ": 1193,
      "કસા": 1194,
      "ાંશ": 1195,
      "બહાર": 1196,
      "રુ": 1197,
      "ક્સેસ": 1198,
      "ફેરફ": 1199,
      "લમાં": 1200,
      "કોડ": 1201,
      "સારાંશ": 1202,
      "કોઈપણ": 1203,
      "નોંધ": 1204,
      "એપ્લિકેશન": 1205,
      "ૂહરચના": 1206,
      "ગુણ": 1207,
      "ઘર": 1208,
      "ગ્રહ": 1209,
      "સુવિધા": 1210,
      "એલ": 1211,
      "ખરે": 1212,
      "રમત": 1213,
      "ૂત": 1214,
      "મજબ": 1215,
      "સૂર્ય": 1216,
      "ઝે": 1217,
      "વ્યૂહરચના": 1218,
      "નેટવર્ક": 1219,
      "મુશ્": 1220,
      "અભ્યા": 1221,
      "તૈય": 1222,
      "િયન": 1223,
      "ટેકનો": 1224,
      "ક્ષણિક": 1225,
      "કોને": 1226,
      "અલગ": 1227,
      "જેનો": 1228,
      "સ્પષ્ટ": 1229,
      "જોડા": 1230,
      "સુરક્ષિત": 1231,
      "િયાન": 1232,
      "ટેકનોલોજી": 1233,
      "પિ": 1234,
      "શાળી": 1235,
      "જરૂરિયા": 1236,
      "ખુ": 1237,
      "લાઇ": 1238,
      "સરો": 1239,
      "કુશ": 1240,
      "તમ": 1241,
      "લિંગ": 1242,
      "આસ": 1243,
      "બની": 1244,
      "સંસાધનો": 1245,
      "રીત": 1246,
      "હોવા": 1247,
      "આંતર": 1248,
      "ઉપકરણ": 1249,
      "નાં": 1250,
      "બુદ્ધિ": 1251,
      "આસપાસ": 1252,
      "ધરાવે": 1253,
      "ક્ષેત્ર": 1254,
      "દરમ": 1255,
      "આપણા": 1256,
      "રમ": 1257,
      "કારી": 1258,
      "પ્રાપ્ત": 1259,
      "અભ્યાસ": 1260,
      "ભૂમિ": 1261,
      "નિશ્ચિત": 1262,
      "શોધી": 1263,
      "an": 1264,
      "સમૂહ": 1265,
      "આકર્": 1266,
      "કર્યો": 1267,
      "મોટી": 1268,
      "કાળ": 1269,
      "વ્યવહાર": 1270,
      "દોરી": 1271,
      "ખોરા": 1272,
      "સ્તી": 1273,
      "બાજુ": 1274,
      "્વ": 1275,
      "કને": 1276,
      "કરતી": 1277,
      "નનો": 1278,
      "th": 1279,
      "રાષ્ટ": 1280,
      "પ્લા": 1281,
      "વિકસા": 1282,
      "મીડિયા": 1283,
      "જાણી": 1284,
      "ગણતરી": 1285,
      "બાળ": 1286,
      "શોધવા": 1287,
      "લોકોને": 1288,
      "દરમિયાન": 1289,
      "નાઇ": 1290,
      "દર્શા": 1291,
      "ટિલ": 1292,
      "પસંદગી": 1293,
      "મજબૂત": 1294,
      "પક": 1295,
      "પરિણામો": 1296,
      "જેના": 1297,
      "વખતે": 1298,
      "ઇનપુટ": 1299,
      "પ્રોત્સાહ": 1300,
      "જટિલ": 1301,
      "સંભા": 1302,
      "ઓનું": 1303,
      "સંપ": 1304,
      "વિષય": 1305,
      "નિયં": 1306,
      "જિક": 1307,
      "માટેની": 1308,
      "વાય": 1309,
      "પ્રમાણ": 1310,
      "રોકા": 1311,
      "કેટલી": 1312,
      "એલ્ગોરિધ": 1313,
      "જાણ": 1314,
      "પણે": 1315,
      "હુ": 1316,
      "બ્રા": 1317,
      "વ્યવસાય": 1318,
      "ગીત": 1319,
      "સંશોધન": 1320,
      "ણને": 1321,
      "પક્ષ": 1322,
      "સ્ત્રો": 1323,
      "સંભાળ": 1324,
      "સું": 1325,
      "સંપૂર્ણ": 1326,
      "પેદા": 1327,
      "ઉપયોગમાં": 1328,
      "કુશળતા": 1329,
      "શ્યક": 1330,
      "એટ": 1331,
      "અસરો": 1332,
      "માત્ર": 1333,
      "વિતા": 1334,
      "આવશ્યક": 1335,
      "ક્લા": 1336,
      "બને": 1337,
      "મહા": 1338,
      "યત્": 1339,
      "રાત": 1340,
      "પડે": 1341,
      "કરશે": 1342,
      "તાપમાન": 1343,
      "ઇલે": 1344,
      "જાળ": 1345,
      "કૃત્રિ": 1346,
      "કૃત્રિમ": 1347,
      "બજ": 1348,
      "ઘટના": 1349,
      "જગ": 1350,
      "નિયા": 1351,
      "પન્ન": 1352,
      "તેમજ": 1353,
      "અવા": 1354,
      "શીલ": 1355,
      "માર્કેટિંગ": 1356,
      "નીચેની": 1357,
      "બનાવી": 1358,
      "રામ": 1359,
      "કાર્યક્ષમ": 1360,
      "મહત્": 1361,
      "ઉદ્યો": 1362,
      "ધ્યાનમાં": 1363,
      "અલ્ગોરિધ": 1364,
      "માટેના": 1365,
      "પર્યાવરણ": 1366,
      "ઓનલાઇન": 1367,
      "ing": 1368,
      "હં": 1369,
      "ંડા": 1370,
      "નિષ્": 1371,
      "ક્યારે": 1372,
      "વાક્યમાં": 1373,
      "વાહ": 1374,
      "પ્રોજેક્ટ": 1375,
      "આધારે": 1376,
      "on": 1377,
      "આર્થ": 1378,
      "ઉત્પન્ન": 1379,
      "સફળ": 1380,
      "તમામ": 1381,
      "તૈયાર": 1382,
      "બનાવ": 1383,
      "ઘટકો": 1384,
      "સામનો": 1385,
      "સરે": 1386,
      "શક્ય": 1387,
      "તત્": 1388,
      "તેવા": 1389,
      "વવાની": 1390,
      "આત": 1391,
      "નાણા": 1392,
      "ાયે": 1393,
      "ઇમે": 1394,
      "પ્સ": 1395,
      "મુદ્": 1396,
      "પ્રશ્નો": 1397,
      "ગોઠ": 1398,
      "વિચારો": 1399,
      "ઘણીવાર": 1400,
      "કાઢ": 1401,
      "ગરમ": 1402,
      "અંગ": 1403,
      "એમ": 1404,
      "પૂરી": 1405,
      "ગ્રે": 1406,
      "ઇલેક્ટ": 1407,
      "ગઈ": 1408,
      "જંગ": 1409,
      "નોકરી": 1410,
      "સર્જન": 1411,
      "બળ": 1412,
      "ુક": 1413,
      "તંદુર": 1414,
      "આર્થિક": 1415,
      "પગલાં": 1416,
      "ભે": 1417,
      "લાડી": 1418,
      "બિલાડી": 1419,
      "જનાત્મક": 1420,
      "તફાવત": 1421,
      "સર્જનાત્મક": 1422,
      "વહ": 1423,
      "ૃત": 1424,
      "or": 1425,
      "હંમે": 1426,
      "કહે": 1427,
      "નિર્ણય": 1428,
      "તાને": 1429,
      "સુંદર": 1430,
      "એવી": 1431,
      "લં": 1432,
      "કિંમત": 1433,
      "સૂચવો": 1434,
      "સંદે": 1435,
      "સંદેશા": 1436,
      "વિઝ": 1437,
      "આઉટપુટ": 1438,
      "આકાશ": 1439,
      "થયો": 1440,
      "ટું": 1441,
      "મુસા": 1442,
      "આર્": 1443,
      "લિક": 1444,
      "વેદ": 1445,
      "આબો": 1446,
      "પ્રતિસાદ": 1447,
      "લગ": 1448,
      "ડિજિ": 1449,
      "પસાર": 1450,
      "en": 1451,
      "સારા": 1452,
      "મૂલ્ય": 1453,
      "es": 1454,
      "ઝડપી": 1455,
      "જવાબ": 1456,
      "સુરક્ષા": 1457,
      "જેથી": 1458,
      "નિયમિત": 1459,
      "તેથી": 1460,
      "જાહેર": 1461,
      "સોશિયલ": 1462,
      "લાગણી": 1463,
      "જ્હો": 1464,
      "લન": 1465,
      "ટેક્સ્ટ": 1466,
      "સફર": 1467,
      "ઘટાડો": 1468,
      "વતા": 1469,
      "શેર": 1470,
      "રજૂ": 1471,
      "રોકાણ": 1472,
      "શૈલી": 1473,
      "યુનાઇ": 1474,
      "યુનાઇટેડ": 1475,
      "બચા": 1476,
      "ચ્ચ": 1477,
      "સાયો": 1478,
      "વ્યવસાયો": 1479,
      "ડિજિટલ": 1480,
      "પ્રવૃત્તિઓ": 1481,
      "ખે": 1482,
      "જોવા": 1483,
      "તાર": 1484,
      "લાંબા": 1485,
      "પ્રેર": 1486,
      "પ્રોત્સાહન": 1487,
      "વાતચી": 1488,
      "ફ્રે": 1489,
      "વર્તમાન": 1490,
      "મેં": 1491,
      "કલા": 1492,
      "ૈતિક": 1493,
      "તિહા": 1494,
      "ખરીદી": 1495,
      "વાતચીત": 1496,
      "નાની": 1497,
      "પૃષ્ઠ": 1498,
      "વત્તા": 1499,
      "તંદુરસ્ત": 1500,
      "મર્યા": 1501,
      "વળ": 1502,
      "મિનિ": 1503,
      "લોકપ્રિય": 1504,
      "ટીમ": 1505,
      "સંસ્": 1506,
      "સુનિશ્ચિત": 1507,
      "રલ": 1508,
      "લાગે": 1509,
      "કના": 1510,
      "પ્રજા": 1511,
      "કન": 1512,
      "મધ્ય": 1513,
      "ક્રો": 1514,
      "પ્રદૂ": 1515,
      "મન": 1516,
      "ક્યો": 1517,
      "ચમ": 1518,
      "ાર્ક": 1519,
      "ટૂં": 1520,
      "ટાઇ": 1521,
      "ઉત્પાદનો": 1522,
      "લર": 1523,
      "કર્મ": 1524,
      "હેતુ": 1525,
      "રાશ": 1526,
      "વિશ્વાસ": 1527,
      "હશે": 1528,
      "ચારી": 1529,
      "નૈતિક": 1530,
      "નજી": 1531,
      "પેટ": 1532,
      "છોડ": 1533,
      "વચ્ચેના": 1534,
      "કવિતા": 1535,
      "બ્રે": 1536,
      "પરિસ્થિતિ": 1537,
      "ોને": 1538,
      "વસ્તી": 1539,
      "સફળતા": 1540,
      "લેન્ડ": 1541,
      "શ્ર": 1542,
      "પ્રયા": 1543,
      "કર્મચારી": 1544,
      "લખા": 1545,
      "નોંધપાત્ર": 1546,
      "ક્યારેય": 1547,
      "માળ": 1548,
      "સમુદ્ર": 1549,
      "પાડે": 1550,
      "ઉમેરો": 1551,
      "લ્યુ": 1552,
      "ડ્સ": 1553,
      "શારી": 1554,
      "ઉચ્ચ": 1555,
      "્રિક": 1556,
      "શારીરિક": 1557,
      "જવાબદ": 1558,
      "દાય": 1559,
      "ચ્છ": 1560,
      "આપેલા": 1561,
      "રક્ષણ": 1562,
      "સન": 1563,
      "સામે": 1564,
      "તત્વો": 1565,
      "એન્જિ": 1566,
      "ક્ટિ": 1567,
      "આવ્યું": 1568,
      "દાખ": 1569,
      "ફોર્મ": 1570,
      "તેજ": 1571,
      "સ્વતંત્ર": 1572,
      "બનાવવામાં": 1573,
      "ક્રાં": 1574,
      "ઓફ": 1575,
      "ોમાં": 1576,
      "al": 1577,
      "ક્રાંતિ": 1578,
      "હ્": 1579,
      "લ્ટ": 1580,
      "સચો": 1581,
      "દ્ધા": 1582,
      "સચોટ": 1583,
      "પ્રિ": 1584,
      "મુસાફરી": 1585,
      "પૂર": 1586,
      "બહુ": 1587,
      "તેણી": 1588,
      "જ્ઞાન": 1589,
      "પોતાના": 1590,
      "ર્ન": 1591,
      "ગુણવત્તા": 1592,
      "હંમેશાં": 1593,
      "પરિવહ": 1594,
      "મુશ્કેલ": 1595,
      "અવાજ": 1596,
      "પરે": 1597,
      "બિન": 1598,
      "ફેરફાર": 1599,
      "ચર્": 1600,
      "ટેલિ": 1601,
      "મિત્રો": 1602,
      "યોજન": 1603,
      "રહ્યું": 1604,
      "મુદ્દા": 1605,
      "ક્ષિ": 1606,
      "રાખવા": 1607,
      "આહાર": 1608,
      "સામા": 1609,
      "લાઇટ": 1610,
      "ઉન્ટ": 1611,
      "પ્રતિક્રિયા": 1612,
      "વૈશ્": 1613,
      "કરવાના": 1614,
      "સામાજિક": 1615,
      "સંભાવના": 1616,
      "જેને": 1617,
      "at": 1618,
      "જુદા": 1619,
      "ડર": 1620,
      "સંદેશાવ્યવહાર": 1621,
      "વાંચ": 1622,
      "વસ્તુઓ": 1623,
      "પ્લેટ": 1624,
      "આકર્ષક": 1625,
      "કન્": 1626,
      "ઝો": 1627,
      "ટ્રા": 1628,
      "ફોન": 1629,
      "ar": 1630,
      "લાભ": 1631,
      "લાક્ષણિક": 1632,
      "સમાં": 1633,
      "અંત": 1634,
      "ભવિષ્ય": 1635,
      "વ્યક્ત": 1636,
      "મળે": 1637,
      "જીવ": 1638,
      "પૃથ્": 1639,
      "પૃથ્વી": 1640,
      "કાર્બન": 1641,
      "ઉદ્યોગ": 1642,
      "જેટ": 1643,
      "ઓળખવા": 1644,
      "પ્રવૃત્તિ": 1645,
      "ચલા": 1646,
      "ડેટાને": 1647,
      "st": 1648,
      "ઘા": 1649,
      "પરીક્ષણ": 1650,
      "માંગ": 1651,
      "કંઈ": 1652,
      "સ્ટેટ્સ": 1653,
      "સહાય": 1654,
      "એલ્ગોરિધમ્સ": 1655,
      "તેવી": 1656,
      "ંપરા": 1657,
      "પરંપરા": 1658,
      "વિભા": 1659,
      "આવ્યો": 1660,
      "),": 1661,
      "વિરો": 1662,
      "સ્થળ": 1663,
      "તાની": 1664,
      "જિત": 1665,
      "પદ્ધતિઓ": 1666,
      "મૂલ્યાં": 1667,
      "પવન": 1668,
      "શરી": 1669,
      "વિશા": 1670,
      "મતી": 1671,
      "સ્પર્": 1672,
      "શરીર": 1673,
      "સેવાઓ": 1674,
      "મિનિટ": 1675,
      "કાત": 1676,
      "પડી": 1677,
      "ચર્ચા": 1678,
      "પ્રયત્": 1679,
      "લની": 1680,
      "એપ્લિકેશ": 1681,
      "વહે": 1682,
      "વૃક્ષ": 1683,
      "વૈશ્વિક": 1684,
      "ક્યુ": 1685,
      "કેટલીક": 1686,
      "પ્રોત્સાહિત": 1687,
      "જોખમ": 1688,
      "પરિવર્તન": 1689,
      "પાય": 1690,
      "ઉં": 1691,
      "સ્પે": 1692,
      "કલ્પ": 1693,
      "ભૂમિકા": 1694,
      "શાંતિ": 1695,
      "પોસ્ટ": 1696,
      "સિદ્ધા": 1697,
      "ૂં": 1698,
      "ગીરી": 1699,
      "વિશાળ": 1700,
      "ઓછી": 1701,
      "છતાં": 1702,
      "ક્રિય": 1703,
      "ઠા": 1704,
      "આબોહવા": 1705,
      "મૂલ્યાંકન": 1706,
      "પર્": 1707,
      "છેલ્": 1708,
      "મૂવી": 1709,
      "ડું": 1710,
      "ભરે": 1711,
      "સંદર્": 1712,
      "ડીને": 1713,
      "બિં": 1714,
      "અધિ": 1715,
      "ખોરાક": 1716,
      "વર્ગ": 1717,
      "મિત્ર": 1718,
      "વધારે": 1719,
      "મરી": 1720,
      "તામાં": 1721,
      "હવામાન": 1722,
      "ગ્રાહકોને": 1723,
      "જ્હોન": 1724,
      "જગ્યા": 1725,
      "લખ": 1726,
      "તાલી": 1727,
      "ક્શન": 1728,
      "નિર્ણયો": 1729,
      "ઇમેઇલ": 1730,
      "રિંગ": 1731,
      "દૃષ્ટિ": 1732,
      "12": 1733,
      "ભૌ": 1734,
      "સંપર્ક": 1735,
      "સંસ્થા": 1736,
      "િત્વ": 1737,
      "શરૂઆત": 1738,
      "કેમ": 1739,
      "સરેરાશ": 1740,
      "નાણાકીય": 1741,
      "કસર": 1742,
      "નક": 1743,
      "માનસિક": 1744,
      "પરંપરાગત": 1745,
      "હાથ": 1746,
      "વાસ્ત": 1747,
      "તોને": 1748,
      "શક્તિશાળી": 1749,
      "શ્રેણી": 1750,
      "લુ": 1751,
      "સંચાલિત": 1752,
      "ંતરિત": 1753,
      "મહિ": 1754,
      "તાલીમ": 1755,
      "પહેલા": 1756,
      "ઉકે": 1757,
      "ઘટાડવામાં": 1758,
      "પ્રકારના": 1759,
      "18": 1760,
      "કરા": 1761,
      "પ્રગતિ": 1762,
      "હોવી": 1763,
      "સંકળ": 1764,
      "બજાર": 1765,
      "પ્રદર્": 1766,
      "પ્રદૂષણ": 1767,
      "સત": 1768,
      "ત્યાર": 1769,
      "સાંભ": 1770,
      "મુલા": 1771,
      "ભી": 1772,
      "ખેલા": 1773,
      "છેવ": 1774,
      "ટિક": 1775,
      "સંતુ": 1776,
      "્યુઅલ": 1777,
      "સ્કો": 1778,
      "છેવટે": 1779,
      "ઉડ": 1780,
      "નારા": 1781,
      "તકનીકો": 1782,
      "લેવામાં": 1783,
      "સુધારવા": 1784,
      "ચમચી": 1785,
      "રૂપા": 1786,
      "સફરજન": 1787,
      "દુનિયા": 1788,
      "15": 1789,
      "તમારે": 1790,
      "વાસ્તવિક": 1791,
      "ઉત્સર્જન": 1792,
      "ઠી": 1793,
      "દાર": 1794,
      "અક્ષ": 1795,
      "કાઉન્ટ": 1796,
      "પદાર્": 1797,
      "ંચા": 1798,
      "કૂત": 1799,
      "જમી": 1800,
      "દય": 1801,
      "હલ": 1802,
      "પ્રભાવ": 1803,
      "યુદ્ધ": 1804,
      "તને": 1805,
      "જણા": 1806,
      "રંગી": 1807,
      "સનીય": 1808,
      "સમયે": 1809,
      "શં": 1810,
      "પ્રેમ": 1811,
      "નુકસા": 1812,
      "બીબી": 1813,
      "ફિલ્": 1814,
      "બીજી": 1815,
      "સ્ટિક": 1816,
      "le": 1817,
      "રહસ": 1818,
      "સતત": 1819,
      "મણ": 1820,
      "પ્રણા": 1821,
      "ુનિક": 1822,
      "વધારા": 1823,
      "સંદર્ભ": 1824,
      "કામગીરી": 1825,
      "અમ": 1826,
      "શાસ્": 1827,
      "જેણે": 1828,
      "ટોચ": 1829,
      "પોતાની": 1830,
      "શીર્": 1831,
      "સૂચના": 1832,
      "પ્રયાસ": 1833,
      "ઇન્ટરનેટ": 1834,
      "વિશ્વસનીય": 1835,
      "લખાણ": 1836,
      "વર્ચ": 1837,
      "બોલ": 1838,
      "ક્રે": 1839,
      "કથા": 1840,
      "ખેલાડી": 1841,
      "અંદર": 1842,
      "બ્ર": 1843,
      "સ્થ્ય": 1844,
      "બ્જેક્ટ": 1845,
      "સ્વાસ્થ્ય": 1846,
      "સ્કે": 1847,
      "રહેવા": 1848,
      "ચું": 1849,
      "શાક": 1850,
      "ગમ": 1851,
      "ોની": 1852,
      "નિરી": 1853,
      "ઇતિહા": 1854,
      "વાક્યો": 1855,
      "વ્યાખ્યા": 1856,
      "ડ્રા": 1857,
      "જૂથ": 1858,
      "ભારત": 1859,
      "ફક્ત": 1860,
      "સમીકરણ": 1861,
      "લેવાની": 1862,
      "ઝર": 1863,
      "તબીબી": 1864,
      "ગાળા": 1865,
      "સ્થાનિક": 1866,
      "કર્યા": 1867,
      "ચય": 1868,
      "બાદ": 1869,
      "પોર્ટ": 1870,
      "પ્લે": 1871,
      "વાનગી": 1872,
      "પૂર્વક": 1873,
      "ચિત્ર": 1874,
      "અણ": 1875,
      "એકં": 1876,
      "અલ્ગોરિધમનો": 1877,
      "પ્રણાલી": 1878,
      "પ્રકારની": 1879,
      "વપરાશકર્તાઓને": 1880,
      "વાઇ": 1881,
      "ગયા": 1882,
      "સ્વચાલિત": 1883,
      "પહેલાં": 1884,
      "ફોર્": 1885,
      "યાદ": 1886,
      "સ્રો": 1887,
      "ફ્રા": 1888,
      "તક": 1889,
      "ફેલા": 1890,
      "મેળવવા": 1891,
      "આવો": 1892,
      "આખરે": 1893,
      "અનુકૂ": 1894,
      "પિંગ": 1895,
      "કરતાં": 1896,
      "આં": 1897,
      "ઝિ": 1898,
      "વેજ": 1899,
      "મહાન": 1900,
      "વતો": 1901,
      "શિયા": 1902,
      "હેરા": 1903,
      "સપા": 1904,
      "પ્રદ": 1905,
      "નવીન": 1906,
      "ભોજન": 1907,
      "ળવા": 1908,
      "સરળતા": 1909,
      "શિષ્ટ": 1910,
      "એકબીજા": 1911,
      "પ્રાણીઓ": 1912,
      "આર": 1913,
      "પ્ટિ": 1914,
      "જીત": 1915,
      "બદલ": 1916,
      "વરણીય": 1917,
      "પક્ષી": 1918,
      "છબી": 1919,
      "તાજે": 1920,
      "સાં": 1921,
      "તાજેતર": 1922,
      "કઈ": 1923,
      "કદ": 1924,
      "કોર્ડ": 1925,
      "તેજસ્વી": 1926,
      "ંગ્": 1927,
      "તકો": 1928,
      "000": 1929,
      "બ્ધ": 1930,
      "પ્રોડ": 1931,
      "ગ્રાહકની": 1932,
      "નિરીક્ષણ": 1933,
      "સ્ટ્ર": 1934,
      "રાખી": 1935,
      "ખરીદ": 1936,
      "વિશિષ્ટ": 1937,
      "ઓબ્જેક્ટ": 1938,
      "ૂક": 1939,
      "આકાર": 1940,
      "ટુક": 1941,
      "માર": 1942,
      "એકત્રિત": 1943,
      "સ્ત્રોતો": 1944,
      "હૃ": 1945,
      "નિવેદ": 1946,
      "સમજવા": 1947,
      "ંડો": 1948,
      "મોડેલો": 1949,
      "મેને": 1950,
      "સંગ્ર": 1951,
      "ખર": 1952,
      "જાદુ": 1953,
      "કસરત": 1954,
      "હૃદય": 1955,
      "િર": 1956,
      "ભલા": 1957,
      "લોગ": 1958,
      "રાંધ": 1959,
      "મુક્ત": 1960,
      "આધુનિક": 1961,
      "લબ્ધ": 1962,
      "પ્રોગ્રામિંગ": 1963,
      "ઝેશન": 1964,
      "શકી": 1965,
      "ન્ટિ": 1966,
      "મેટ": 1967,
      "રૂપાંતરિત": 1968,
      "ઠો": 1969,
      "પ્ટિમાઇ": 1970,
      "વધારવા": 1971,
      "હોવું": 1972,
      "બેઝ": 1973,
      "લક્ષ્ય": 1974,
      "મય": 1975,
      "રસ્": 1976,
      "કરવાથી": 1977,
      "પ્રમાણમાં": 1978,
      "ાયેલ": 1979,
      "સંઘ": 1980,
      "ઉપલબ્ધ": 1981,
      "ક્રી": 1982,
      "રેકોર્ડ": 1983,
      "તેઓએ": 1984,
      "કાર્યક્ષમતા": 1985,
      "ક્રિપ્ટ": 1986,
      "પલ": 1987,
      "અંતે": 1988,
      "co": 1989,
      "શુ": 1990,
      "ખાસ": 1991,
      "તારા": 1992,
      "પાછ": 1993,
      "--": 1994,
      "સિસ્ટમ્સ": 1995,
      "નકારાત્મક": 1996,
      "મોબા": 1997,
      "ડ્રે": 1998,
      "પ્રાર": 1999,
      "વૈજ્ઞા": 2000,
      "ફળ": 2001,
      "શાળા": 2002,
      "પ્રેક્ષ": 2003,
      "ન્યુરલ": 2004,
      "સલામતી": 2005,
      "રં": 2006,
      "પ્રારંભ": 2007,
      "ભાજી": 2008,
      "શાકભાજી": 2009,
      "ઉપર": 2010,
      "આઈ": 2011,
      "સમીક્ષા": 2012,
      "ઉપરા": 2013,
      "નિયંત્રિત": 2014,
      "શીર્ષક": 2015,
      "ઉપરાંત": 2016,
      "કાં": 2017,
      "ક્રમમાં": 2018,
      "અનન્ય": 2019,
      "લક્ષણ": 2020,
      "દરિયા": 2021,
      "સપાટી": 2022,
      "ભગ": 2023,
      "સ્વરૂપ": 2024,
      "અપે": 2025,
      "એવા": 2026,
      "તપાસ": 2027,
      "ti": 2028,
      "પાં": 2029,
      "અમારી": 2030,
      "ક્ટર": 2031,
      "ચિં": 2032,
      "સક્રિય": 2033,
      "પર્યાવરણીય": 2034,
      "લક્ષ્યો": 2035,
      "નવીની": 2036,
      "બેક": 2037,
      "સ્થિર": 2038,
      "રસો": 2039,
      "જનક": 2040,
      "કમ્પ્યુટિંગ": 2041,
      "રોબોટ": 2042,
      "હવે": 2043,
      "ફિક": 2044,
      "પ્લેટફોર્મ": 2045,
      "લંબા": 2046,
      "પ્રોડક્ટ": 2047,
      "ભૌતિક": 2048,
      "રાખો": 2049,
      "લસ": 2050,
      "ઉપકરણો": 2051,
      "માત્રા": 2052,
      "ગરી": 2053,
      "સકારાત્મક": 2054,
      "વ્યાપક": 2055,
      "ક્લાઉડ": 2056,
      "દિત": 2057,
      "તાના": 2058,
      "વ્યું": 2059,
      "દૃશ્ય": 2060,
      "આશ્": 2061,
      "બળો": 2062,
      "સવા": 2063,
      "પ્રયોગ": 2064,
      "બોર્ડ": 2065,
      "ઍક્સેસ": 2066,
      "દલી": 2067,
      "મિશ્ર": 2068,
      "આશા": 2069,
      "ર્ષ": 2070,
      "સ્થાપિત": 2071,
      "મોબાઇલ": 2072,
      "ક્સિ": 2073,
      "સંગીત": 2074,
      "પૂછ": 2075,
      "કંઈક": 2076,
      "કચ": 2077,
      "પરિવાર": 2078,
      "વખત": 2079,
      "આપણી": 2080,
      "જોડાય": 2081,
      "મુલાકાત": 2082,
      "50": 2083,
      "ખત": 2084,
      "ગ્લો": 2085,
      "11": 2086,
      "નર": 2087,
      "વેચા": 2088,
      "પુસ્તક": 2089,
      "ડ્રાઇ": 2090,
      "મ્યુ": 2091,
      "મર્યાદિત": 2092,
      "અન્": 2093,
      "વિકસ": 2094,
      "અમેરિક": 2095,
      "ટેકો": 2096,
      "બદલા": 2097,
      "લને": 2098,
      "સહયોગ": 2099,
      "દસ્તા": 2100,
      "િયમ": 2101,
      "ઉના": 2102,
      "આજે": 2103,
      "લિવ": 2104,
      "કરણીય": 2105,
      "એઆઇ": 2106,
      "સ્ટા": 2107,
      "પરમાણ": 2108,
      "શાંત": 2109,
      "ંદ્ર": 2110,
      "ટ્રેક": 2111,
      "સ્પર્ધા": 2112,
      "્ટી": 2113,
      "લગભગ": 2114,
      "પરમાણુ": 2115,
      "શીખવા": 2116,
      "માપ": 2117,
      "સૌર": 2118,
      "મનોરં": 2119,
      "શકું": 2120,
      "ડિસ્": 2121,
      "બોટ": 2122,
      "વાતાવરણમાં": 2123,
      "સંચાલ": 2124,
      "વચ્ચેનો": 2125,
      "શકીએ": 2126,
      "લભ": 2127,
      "કાયદા": 2128,
      "સના": 2129,
      "રીતો": 2130,
      "નુષ્ય": 2131,
      "પુનઃ": 2132,
      "નવીનીકરણીય": 2133,
      "સરળતાથી": 2134,
      "ચાલુ": 2135,
      "મૂળભૂત": 2136,
      "પદ્ધતિ": 2137,
      "ઉકેલો": 2138,
      "ઓટો": 2139,
      "વં": 2140,
      "ચંદ્ર": 2141,
      "ચર્ય": 2142,
      "રેખા": 2143,
      "પરિવહન": 2144,
      "સંઘર્ષ": 2145,
      "વિશેની": 2146,
      "પ્રશ્ન": 2147,
      "ધું": 2148,
      "સરકાર": 2149,
      "ફેસ": 2150,
      "ટર્સ": 2151,
      "કુલ": 2152,
      "આરામ": 2153,
      "રાષ્ટ્ર": 2154,
      "લાલ": 2155,
      "કાર્યોને": 2156,
      "્રીય": 2157,
      "સંગત": 2158,
      "રોમાં": 2159,
      "ખ્યાત": 2160,
      "આશ્ચર્ય": 2161,
      "વરસાદ": 2162,
      "મોટો": 2163,
      "ઉસ": 2164,
      "ઓળખવામાં": 2165,
      "શનલ": 2166,
      "વર્તણ": 2167,
      "તન": 2168,
      "ણમાં": 2169,
      "નદી": 2170,
      "નુકસાન": 2171,
      "અન્વે": 2172,
      "મહત્ત્વ": 2173,
      "અન્વેષણ": 2174,
      "યુક્ત": 2175,
      "પ્લાસ્ટિક": 2176,
      "રાહ": 2177,
      "નિયમો": 2178,
      "જોખમો": 2179,
      "રિયા": 2180,
      "વિસ્તાર": 2181,
      "રાષ્ટ્રીય": 2182,
      "પ્રત્ય": 2183,
      "પ્રેરણા": 2184,
      "જની": 2185,
      "દ્રષ્ટિ": 2186,
      "ફુ": 2187,
      "ગમે": 2188,
      "વ્ર": 2189,
      "સંસ્કૃતિ": 2190,
      "re": 2191,
      "વજન": 2192,
      "રિકા": 2193,
      "ઘરે": 2194,
      "ઉન": 2195,
      "તીવ્ર": 2196,
      "વ્યો": 2197,
      "લ્પો": 2198,
      "પરિણામ": 2199,
      "૧૦": 2200,
      "ટિક્સ": 2201,
      "વાદળી": 2202,
      "ધરાવતા": 2203,
      "વિશેષણ": 2204,
      "નિર્માણ": 2205,
      "ટુકડા": 2206,
      "તાનો": 2207,
      "વર્ગીકરણ": 2208,
      "ઇલેક્ટ્રિક": 2209,
      "ઉન્ડ": 2210,
      "શહે": 2211,
      "પ્રકૃતિ": 2212,
      "બધી": 2213,
      "મિંગ": 2214,
      "મુજબ": 2215,
      "ચોકસા": 2216,
      "પ્રજાતિઓ": 2217,
      "માર્ટ": 2218,
      "દર્દી": 2219,
      "ઉત્પાદક": 2220,
      "ડિયો": 2221,
      "નંબર": 2222,
      "બહુવિધ": 2223,
      "તણા": 2224,
      "સખત": 2225,
      "નારંગી": 2226,
      "ફિલ્મ": 2227,
      "તીય": 2228,
      "ઘટાડ": 2229,
      "આવશે": 2230,
      "ટકાઉ": 2231,
      "અહીં": 2232,
      "લિયન": 2233,
      "શાસ્ત્ર": 2234,
      "બચ": 2235,
      "બચાવવા": 2236,
      "તણાવ": 2237,
      "પ્રખ્યાત": 2238,
      "વ્યાવ": 2239,
      "સુવિધાઓ": 2240,
      "ઇંડા": 2241,
      "લાગુ": 2242,
      "અવરો": 2243,
      "અપેક્ષા": 2244,
      "ધીમે": 2245,
      "અમેરિકા": 2246,
      "વિકસિત": 2247,
      "વ્": 2248,
      "વ્યાવસાય": 2249,
      "ઠું": 2250,
      "પૈ": 2251,
      "વર્ડ": 2252,
      "ફાઇ": 2253,
      "and": 2254,
      "મૂક": 2255,
      "ટેબલ": 2256,
      "રોક": 2257,
      "ચ્છા": 2258,
      "એટલે": 2259,
      "સંગ્રહિત": 2260,
      "યેલી": 2261,
      "અવકાશ": 2262,
      "સ્માર્ટ": 2263,
      "લાવી": 2264,
      "17": 2265,
      "રાજ્ય": 2266,
      "મીટર": 2267,
      "ક્ષેત્રો": 2268,
      "રોપ": 2269,
      "તોષ": 2270,
      "આવતી": 2271,
      "સંતોષ": 2272,
      "ઊંડા": 2273,
      "નિયંત્રણ": 2274,
      "જન્": 2275,
      "માર્ગદર્": 2276,
      "એરે": 2277,
      "તેનાથી": 2278,
      "પુનરા": 2279,
      "ટોપ": 2280,
      "હકારાત્મક": 2281,
      "જીપી": 2282,
      "ઊર્જાના": 2283,
      "પાડ": 2284,
      "વિકલ્પો": 2285,
      "રહસ્ય": 2286,
      "બાળકો": 2287,
      "નાર": 2288,
      "પરિબળો": 2289,
      "ક્રિયાપદ": 2290,
      "રાખે": 2291,
      "સહિત": 2292,
      "લાંબી": 2293,
      "ન્ચ": 2294,
      "પોઇન્ટ": 2295,
      "ન્યૂ": 2296,
      "દાખલા": 2297,
      "સંચાલન": 2298,
      "એન્ડ": 2299,
      "ઓથી": 2300,
      "સલાહ": 2301,
      "બ્રિ": 2302,
      "ચીન": 2303,
      "આત્": 2304,
      "કેશન": 2305,
      "ાર્ડ": 2306,
      "ચિહ્": 2307,
      "પુસ્તકો": 2308,
      "વિરામ": 2309,
      "સૂચવે": 2310,
      "પરિણામે": 2311,
      "</": 2312,
      "અંધ": 2313,
      "લઈને": 2314,
      "આર્ટિ": 2315,
      "કેલી": 2316,
      "ઇન્ટેલિ": 2317,
      "યર": 2318,
      "સાધન": 2319,
      "ર્મિંગ": 2320,
      "અમેરિકન": 2321,
      "બદલી": 2322,
      "ગ્લોબલ": 2323,
      "ઇન્ટેલિજ": 2324,
      "કહો": 2325,
      "માન્યતા": 2326,
      "એચ": 2327,
      "હેલ્": 2328,
      "પ્રકાશિત": 2329,
      "ou": 2330,
      "સારવાર": 2331,
      "ઇલેક્ટ્રો": 2332,
      "ધ્યે": 2333,
      "ઇકો": 2334,
      "પ્રોસેસ": 2335,
      "વેચાણ": 2336,
      "મહે": 2337,
      "અમારા": 2338,
      "રોજ": 2339,
      "ંડી": 2340,
      "જેની": 2341,
      "પુનરાવર્ત": 2342,
      "અનુભવો": 2343,
      "પૂરો": 2344,
      "બીજ": 2345,
      "િયે": 2346,
      "દેખા": 2347,
      "નજીક": 2348,
      "પ્રત્યે": 2349,
      "બનાવવાની": 2350,
      "બજેટ": 2351,
      "રિસાય": 2352,
      "સાઇડ": 2353,
      "બાબ": 2354,
      "જીવંત": 2355,
      "વાયરસ": 2356,
      "રવ": 2357,
      "પગલા": 2358,
      "એપ્લિકેશનો": 2359,
      "આયોજન": 2360,
      "માળા": 2361,
      "ક્વો": 2362,
      "મેશન": 2363,
      "પાવર": 2364,
      "મેનેજ": 2365,
      "્યાય": 2366,
      "પૂરા": 2367,
      "આપણને": 2368,
      "પ્રતિનિ": 2369,
      "પડકારો": 2370,
      "ઇન્ટેલિજન્સ": 2371,
      "સંરક્ષણ": 2372,
      "ત્તિ": 2373,
      "સુલભ": 2374,
      "ણાં": 2375,
      "સીપી": 2376,
      "અણુ": 2377,
      "એઆઈનો": 2378,
      "સામેલ": 2379,
      "વધે": 2380,
      "ાયેલા": 2381,
      "મિક": 2382,
      "યેલ": 2383,
      "સ્થાન": 2384,
      "ધર": 2385,
      "બદલે": 2386,
      "ઓર્ડ": 2387,
      "સ્વાદ": 2388,
      "ચેન": 2389,
      "ગુરુ": 2390,
      "ક્વે": 2391,
      "the": 2392,
      "અનુકૂળ": 2393,
      "મમાં": 2394,
      "નિરા": 2395,
      "ઓછામાં": 2396,
      "રંગો": 2397,
      "જીવનમાં": 2398,
      "જાદુઈ": 2399,
      "દબા": 2400,
      "રૂપરે": 2401,
      "રૂપરેખા": 2402,
      "ગોઠવો": 2403,
      "બતા": 2404,
      "બદ્ધ": 2405,
      "વિદ્યાર્થીઓ": 2406,
      "અંતર": 2407,
      "કોષ": 2408,
      "ડિગ્રી": 2409,
      "પ્રિન્ટ": 2410,
      "ખંડ": 2411,
      "સભ": 2412,
      "સ્ક": 2413,
      "પ્રદર્શન": 2414,
      "નાત્મક": 2415,
      "ડેટાબેઝ": 2416,
      "ંસ": 2417,
      "નેટવર્": 2418,
      "to": 2419,
      "મનુષ્ય": 2420,
      "સમયમાં": 2421,
      "વિશ્વના": 2422,
      "દારી": 2423,
      "જમા": 2424,
      "વ્યવસ્થિત": 2425,
      "કૂતરા": 2426,
      "આર્ટિફિ": 2427,
      "30": 2428,
      "બૂ": 2429,
      "પડકાર": 2430,
      "મૂલ્યો": 2431,
      "કેર": 2432,
      "જાગ": 2433,
      "સ્ટાર": 2434,
      "શિક્ષ": 2435,
      "ઊંચા": 2436,
      "ળું": 2437,
      "સિટી": 2438,
      "દર્શાવે": 2439,
      "ચોકસાઈ": 2440,
      "સફે": 2441,
      "ક્લ": 2442,
      "પૈસા": 2443,
      "આર્ટિફિશિયલ": 2444,
      "ષિત": 2445,
      "ભૂલો": 2446,
      "સમર્થ": 2447,
      "ડની": 2448,
      "ટેક": 2449,
      "િકલ": 2450,
      "હિંમત": 2451,
      "આવેલા": 2452,
      "પાછળ": 2453,
      "ભય": 2454,
      "લૂ": 2455,
      "જાણીતું": 2456,
      "કલ્પના": 2457,
      "ચિક": 2458,
      "સારું": 2459,
      "જવાબદારી": 2460,
      "સફેદ": 2461,
      "ઈન": 2462,
      "વિષયો": 2463,
      "મીઠું": 2464,
      "બર્": 2465,
      "____": 2466,
      "અંગે": 2467,
      "સંક્ષિ": 2468,
      "ભાવિ": 2469,
      "કરેલા": 2470,
      "સંક્ષિપ્ત": 2471,
      "ટ્": 2472,
      "વતી": 2473,
      "પ્રાથમ": 2474,
      "પ્રાથમિક": 2475,
      "ફૂટ": 2476,
      "એન્જિનિય": 2477,
      "એક્સ": 2478,
      "જીવો": 2479,
      "સ્ટ્રક્": 2480,
      "પ્રોસેસિંગ": 2481,
      "સમાજ": 2482,
      "વિકસાવવા": 2483,
      "હેલ્થ": 2484,
      "ચેટ": 2485,
      "વૃદ્ધિ": 2486,
      "ફ્લો": 2487,
      "થોડા": 2488,
      "આદર": 2489,
      "વિંગ": 2490,
      "બ્લોગ": 2491,
      "આરોગ્યસંભાળ": 2492,
      "સંપાદ": 2493,
      "લાય": 2494,
      "સંગ": 2495,
      "સહાયક": 2496,
      "પ્રશં": 2497,
      "પત્ર": 2498,
      "હાઉસ": 2499,
      "માળખા": 2500,
      "જીપીટી": 2501,
      "પૂરું": 2502,
      "શહેરમાં": 2503,
      "એના": 2504,
      "શબ્દોનો": 2505,
      "ટૂંકા": 2506,
      "નીચેનું": 2507,
      "અમને": 2508,
      "લાભો": 2509,
      "ગોમાં": 2510,
      "શબ્દમાળા": 2511,
      "બિંદુ": 2512,
      "શર": 2513,
      "્સને": 2514,
      "લેંગ્": 2515,
      "ફેરફારો": 2516,
      "બચત": 2517,
      "વાળી": 2518,
      "સ્ટ્રે": 2519,
      "નવલ": 2520,
      "નવલકથા": 2521,
      "એવું": 2522,
      "યુરોપ": 2523,
      "વસ્તુઓની": 2524,
      "સંગ્રહ": 2525,
      "રોગચા": 2526,
      "સદી": 2527,
      "ર્મો": 2528,
      "વલણો": 2529,
      "જાહે": 2530,
      "જાહેરાત": 2531,
      "ટન": 2532,
      "નવું": 2533,
      "of": 2534,
      "જવાબદાર": 2535,
      "વંશ": 2536,
      "રેટ": 2537,
      "ભલામણ": 2538,
      "વફા": 2539,
      "ઇતિહાસ": 2540,
      "લેંગ્વેજ": 2541,
      "ગયું": 2542,
      "નિબંધ": 2543,
      "પ્રેક્ટિ": 2544,
      "ત્યારબાદ": 2545,
      "થયા": 2546,
      "વિદ્યાર્થીઓને": 2547,
      "ફળો": 2548,
      "વવી": 2549,
      "સાયણ": 2550,
      "ગ્રીન": 2551,
      "me": 2552,
      "કાન": 2553,
      "ભૂતકાળ": 2554,
      "વિરોધા": 2555,
      "વિરોધાભા": 2556,
      "કૌ": 2557,
      "વિભાવના": 2558,
      "રોના": 2559,
      "પેઇન્ટ": 2560,
      "પ્રશંસા": 2561,
      "તેમણે": 2562,
      "શબ્દસમૂહ": 2563,
      "ઉદાહરણો": 2564,
      "દલીલ": 2565,
      "જેવું": 2566,
      "ચાર્": 2567,
      "પરના": 2568,
      "વ્યક્તિઓ": 2569,
      "આવ્યા": 2570,
      "પોતાને": 2571,
      "કરીએ": 2572,
      "સંબંધો": 2573,
      "ખરેખર": 2574,
      "ફ્રિ": 2575,
      "હજી": 2576,
      "અભાવ": 2577,
      "કંપનીઓ": 2578,
      "વાહી": 2579,
      "હાઇ": 2580,
      "સુધારે": 2581,
      "રણો": 2582,
      "અનુસાર": 2583,
      "ચહેરા": 2584,
      "પ્રસ્તુ": 2585,
      "રેજ": 2586,
      "સ્ટ્રો": 2587,
      "પનીય": 2588,
      "રસપ્રદ": 2589,
      "કોષ્ટ": 2590,
      "વીજ": 2591,
      "ત્રા": 2592,
      "પહોંચા": 2593,
      "રાજકીય": 2594,
      "op": 2595,
      "સમાચાર": 2596,
      "ઊંઘ": 2597,
      "બહા": 2598,
      "પહોંચી": 2599,
      "પ્ટિમાઇઝ": 2600,
      "ઓર્ડર": 2601,
      "પાડવા": 2602,
      "કર્ષણ": 2603,
      "આવક": 2604,
      "ત્રિકોણ": 2605,
      "ગળી": 2606,
      "માનવામાં": 2607,
      "વહેંચ": 2608,
      "લંબાઈ": 2609,
      "વેગ": 2610,
      "મની": 2611,
      "મારો": 2612,
      "દાયકા": 2613,
      "se": 2614,
      "ખું": 2615,
      "થયું": 2616,
      "de": 2617,
      "અર": 2618,
      "ચીઝ": 2619,
      "આંક": 2620,
      "ક્રમો": 2621,
      "વ્યાકરણ": 2622,
      "એડ": 2623,
      "અંગ્રે": 2624,
      "ત્વા": 2625,
      "પ્રયત્ન": 2626,
      "it": 2627,
      "ગેર": 2628,
      "જોડાણ": 2629,
      "સ્ટર": 2630,
      "પડશે": 2631,
      "વાહનો": 2632,
      "સિદ્ધાંત": 2633,
      "સાંભળ": 2634,
      "એક્સેસ": 2635,
      "રહો": 2636,
      "સરસ": 2637,
      "શૈક્ષણિક": 2638,
      "પાર્ક": 2639,
      "જુદી": 2640,
      "એલિ": 2641,
      "વાના": 2642,
      "મુશ્કેલી": 2643,
      "નામાં": 2644,
      "પાત્રો": 2645,
      "આંતરદૃષ્ટિ": 2646,
      "ચોરસ": 2647,
      "ખુશ": 2648,
      "વિચિત્ર": 2649,
      "ટૂંક": 2650,
      "નીતિ": 2651,
      "ગ્રાહકના": 2652,
      "16": 2653,
      "બિત": 2654,
      "સાથી": 2655,
      "લોટ": 2656,
      "રેસીપી": 2657,
      "ફોટો": 2658,
      "સર્વે": 2659,
      "દિષ્ટ": 2660,
      "પદાર્થો": 2661,
      "ઉનાળા": 2662,
      "મગ": 2663,
      "ch": 2664,
      "ઇએ": 2665,
      "અંગ્રેજી": 2666,
      "મારું": 2667,
      "ટૂંકી": 2668,
      "વ્યાવસાયિક": 2669,
      "થશે": 2670,
      "સ્વતંત્રતા": 2671,
      "ગિ": 2672,
      "નજર": 2673,
      "કાગળ": 2674,
      "શીખવાની": 2675,
      "મહત્તમ": 2676,
      "ટ્યુ": 2677,
      "કોલ": 2678,
      "વધુને": 2679,
      "વિશ્વની": 2680,
      "કમ્પ્યુટર્સ": 2681,
      "જરૂરિયાતો": 2682,
      "અધિકાર": 2683,
      "જમીન": 2684,
      "100": 2685,
      "ભાગી": 2686,
      "બ્લોક": 2687,
      "ટક": 2688,
      "રેસ્ટોર": 2689,
      "બીચ": 2690,
      "સોં": 2691,
      "રેસ્ટોરન્ટ": 2692,
      "સુસંગત": 2693,
      "તરંગ": 2694,
      "25": 2695,
      "ડેટાની": 2696,
      "નિવેદન": 2697,
      "રહેવું": 2698,
      "પ્રેક્ટિસ": 2699,
      "વય": 2700,
      "સ્વાદિષ્ટ": 2701,
      "200": 2702,
      "વેન્ટ": 2703,
      "ગરમી": 2704,
      "અંદા": 2705,
      "નબ": 2706,
      "પ્રયત્નો": 2707,
      "ઠવા": 2708,
      "બગી": 2709,
      "ઇચ્છ": 2710,
      "બાર": 2711,
      "પરિચય": 2712,
      "નિકો": 2713,
      "તમારું": 2714,
      "જરૂરિયાત": 2715,
      "કરું": 2716,
      "બાઉ": 2717,
      "ઉમેર": 2718,
      "લગા": 2719,
      "્યૂ": 2720,
      "ઓળખી": 2721,
      "અઠવા": 2722,
      "મજા": 2723,
      "રસ્તા": 2724,
      "અર્થતંત્ર": 2725,
      "ક્ષેત્રમાં": 2726,
      "બાયો": 2727,
      "પાછા": 2728,
      "વર્લ્ડ": 2729,
      "ro": 2730,
      "માખ": 2731,
      "ડિઓ": 2732,
      "ણું": 2733,
      "પ્રવેશ": 2734,
      "લ્લા": 2735,
      "સમસ્યાઓ": 2736,
      "ભારતીય": 2737,
      "કન્ટે": 2738,
      "દક્ષિ": 2739,
      "મૈ": 2740,
      "દ્રશ્ય": 2741,
      "એકંદર": 2742,
      "ન્યાય": 2743,
      "એક્": 2744,
      "વિસ્તૃત": 2745,
      "સિદ્ધાં": 2746,
      "એવો": 2747,
      "ઘો": 2748,
      "વવું": 2749,
      "સાચું": 2750,
      "ડેટાના": 2751,
      "લેબલ": 2752,
      "ભાવો": 2753,
      "હાઇડ": 2754,
      "ટકી": 2755,
      "પાલ": 2756,
      "વિશેના": 2757,
      "વપરાશકર્તાઓ": 2758,
      "મારે": 2759,
      "સ્ક્રિપ્ટ": 2760,
      "ડાયો": 2761,
      "ગલ": 2762,
      "સસ્ત": 2763,
      "રોબોટ્સ": 2764,
      "કાર્ડ": 2765,
      "મેન": 2766,
      "ટણી": 2767,
      "ડક": 2768,
      "હવામાં": 2769,
      "યોજિત": 2770,
      "પાર્ટી": 2771,
      "જણાવો": 2772,
      "ઊંચ": 2773,
      "સરવા": 2774,
      "કૃપા": 2775,
      "વૃક્ષો": 2776,
      "લાક્ષણિકતાઓ": 2777,
      "યેલા": 2778,
      "જાતને": 2779,
      "મળીને": 2780,
      "ગુરુત્વા": 2781,
      "જઈ": 2782,
      "ક્વેરી": 2783,
      "ભારે": 2784,
      "વધી": 2785,
      "વિક્ષે": 2786,
      "તમારો": 2787,
      "કૃતિઓ": 2788,
      "બેશ": 2789,
      "ફાળો": 2790,
      "ઝું": 2791,
      "ન્ટમ": 2792,
      "સ્થળો": 2793,
      "સમાનતા": 2794,
      "જેનાથી": 2795,
      "આંકડા": 2796,
      "આમાં": 2797,
      "ચક": 2798,
      "કેળા": 2799,
      "ઝુંબેશ": 2800,
      "14": 2801,
      "આવતા": 2802,
      "ચમક": 2803,
      "જોયું": 2804,
      "ચળ": 2805,
      "દિવસો": 2806,
      "હેલ્થકેર": 2807,
      "ઝાડ": 2808,
      "અર્થપૂર્ણ": 2809,
      "ગુરુત્વાકર્ષણ": 2810,
      "મધ": 2811,
      "વિશ્વભર": 2812,
      "જરી": 2813,
      "મેટા": 2814,
      "વર્ચ્યુઅલ": 2815,
      "ઉદ્": 2816,
      "બુક": 2817,
      "સ્કેટ": 2818,
      "પાન": 2819,
      "માનવી": 2820,
      "કિર્": 2821,
      "મેળવી": 2822,
      "તારી": 2823,
      "ભુ": 2824,
      "રોગો": 2825,
      "હારી": 2826,
      "મહેન": 2827,
      "વિડ": 2828,
      "પુરસ્": 2829,
      "આપવું": 2830,
      "ઇંધ": 2831,
      "કાલ્પ": 2832,
      "કારકિર્": 2833,
      "પ્રજાતિ": 2834,
      "મિશ્રણ": 2835,
      "કાલ્પનિક": 2836,
      "કારકિર્દી": 2837,
      "અદ્ય": 2838,
      "ફકરા": 2839,
      "અદ્યતન": 2840,
      "આગામી": 2841,
      "માખણ": 2842,
      "આનુ": 2843,
      "ht": 2844,
      "સ્ટ્રી": 2845,
      "સર્ચ": 2846,
      "બરફ": 2847,
      "અપડે": 2848,
      "પેટર્ન": 2849,
      "તકનીક": 2850,
      "એફ": 2851,
      "કૃતિક": 2852,
      "ઘટાડી": 2853,
      "ન્સિ": 2854,
      "રહેશે": 2855,
      "ક્વોન્ટમ": 2856,
      "ig": 2857,
      "લિત": 2858,
      "રાખવામાં": 2859,
      "વીજળી": 2860,
      "પગલું": 2861,
      "મર્યાદા": 2862,
      "પતિ": 2863,
      "શલ": 2864,
      "લેપ": 2865,
      "મૈત્રી": 2866,
      "ce": 2867,
      "આભાર": 2868,
      "પ્રમા": 2869,
      "ડાં": 2870,
      "છેઃ": 2871,
      "બનાવવી": 2872,
      "પણી": 2873,
      "ફૂડ": 2874,
      "ગાર": 2875,
      "અસં": 2876,
      "આપવાની": 2877,
      "શબ્દનો": 2878,
      "̦̦": 2879,
      "ઉકેલ": 2880,
      "પ્ય": 2881,
      "ત્રે": 2882,
      "વાલ": 2883,
      "વિજ્ઞાન": 2884,
      "પ્રાપ્ય": 2885,
      "સુધીની": 2886,
      "ગ્રાહકોની": 2887,
      "સબ": 2888,
      "રોની": 2889,
      "નિદાન": 2890,
      "દક્ષિણ": 2891,
      "ક્સાઇડ": 2892,
      "પ્રતી": 2893,
      "વિડિઓ": 2894,
      "ધાન": 2895,
      "માઇક્રો": 2896,
      "મૈત્રીપૂર્ણ": 2897,
      "રાત્રે": 2898,
      "ગણિત": 2899,
      "ઇચ્છા": 2900,
      "માટેનું": 2901,
      "સેટિંગ": 2902,
      "ગેરે": 2903,
      "બ્રાન્ડ": 2904,
      "દસ્તાવે": 2905,
      "રહસ્યમય": 2906,
      "સિદ્ધાંતો": 2907,
      "અહે": 2908,
      "જિંગ": 2909,
      "સંયોજન": 2910,
      "રાખીને": 2911,
      "ગંધ": 2912,
      "સ્ટોરેજ": 2913,
      "કમ્": 2914,
      "નિર્ધાર": 2915,
      "21": 2916,
      "લાવવા": 2917,
      "વોર્મિંગ": 2918,
      "ગોપનીય": 2919,
      "કુટું": 2920,
      "પાસેથી": 2921,
      "છુ": 2922,
      "વટ": 2923,
      "માઇન્ડ": 2924,
      "જ્ા": 2925,
      "સાહસ": 2926,
      "કસ્ટ": 2927,
      "મૃત": 2928,
      "સાફ": 2929,
      "પ્રતિબિં": 2930,
      "ઇઝ": 2931,
      "તેટ": 2932,
      "પડ્યો": 2933,
      "સંગઠ": 2934,
      "થવો": 2935,
      "વાયુ": 2936,
      "બ્લે": 2937,
      "જીવનની": 2938,
      "ફ્રેન્ચ": 2939,
      "અશ્": 2940,
      "ઓર": 2941,
      "વણ": 2942,
      "ડેટાનો": 2943,
      "મૂકો": 2944,
      "ગર્": 2945,
      "પુરા": 2946,
      "અગા": 2947,
      "એકાઉન્ટ": 2948,
      "ઓછું": 2949,
      "વંશિક": 2950,
      "આનુવંશિક": 2951,
      "વિગત": 2952,
      "ક્રિયાપ્રતિક્રિયા": 2953,
      "જીવનશૈલી": 2954,
      "સૂચનાઓ": 2955,
      "લિટી": 2956,
      "ગૂ": 2957,
      "દારો": 2958,
      "વગેરે": 2959,
      "લોકોની": 2960,
      "આકાશમાં": 2961,
      "અમલ": 2962,
      "તેલ": 2963,
      "બ્રહ્": 2964,
      "અસ્ત": 2965,
      "કલાક": 2966,
      "ખાય": 2967,
      "કોફી": 2968,
      "પ્રાચીન": 2969,
      "પેઇન્ટિંગ": 2970,
      "સંકે": 2971,
      "િયર": 2972,
      "ઘરની": 2973,
      "વિરોધાભાસ": 2974,
      "શન્સ": 2975,
      "જાઓ": 2976,
      "દાયક": 2977,
      "સમાપ્ત": 2978,
      "અનુરૂપ": 2979,
      "માટેનો": 2980,
      "ખ્": 2981,
      "તબ": 2982,
      "દવા": 2983,
      "કહેવામાં": 2984,
      "ઉપયોગી": 2985,
      "મિભૂત": 2986,
      "મેનેજમેન્ટ": 2987,
      "અશ્મિભૂત": 2988,
      "ંછ": 2989,
      "રોને": 2990,
      "શ્વાસ": 2991,
      "ખ્યાલ": 2992,
      "બ્રહ્માં": 2993,
      "ટુ": 2994,
      "કરીશ": 2995,
      "સેન્ટ": 2996,
      "લોકોના": 2997,
      "વિશ્વમાં": 2998,
      "સ્રોત": 2999,
      "કોની": 3000,
      "સ્ટી": 3001,
      "બાકી": 3002,
      "ક્યાં": 3003,
      "મ્ર": 3004,
      "દરરોજ": 3005,
      "મદદરૂપ": 3006,
      "વ્યક્તિને": 3007,
      "પ્રેરિત": 3008,
      "નાઇટ": 3009,
      "વાક્યનો": 3010,
      "શબ્દોમાં": 3011,
      "સલામત": 3012,
      "ટીપ્સ": 3013,
      "વિસ્તારો": 3014,
      "વૈજ્ઞાનિક": 3015,
      "જને": 3016,
      "તળા": 3017,
      "હાજરી": 3018,
      "માઇલ": 3019,
      "બિલાડીઓ": 3020,
      "વડે": 3021,
      "આંતરરાષ્ટ્રીય": 3022,
      "મધ્યમ": 3023,
      "ઇવેન્ટ": 3024,
      "ક્કા": 3025,
      "વિગ": 3026,
      "જોતાં": 3027,
      "યાત્રા": 3028,
      "હવાના": 3029,
      "ક્ટિવ": 3030,
      "ઓક્સિ": 3031,
      "ડોલર": 3032,
      "પાડો": 3033,
      "ઝોન": 3034,
      "રાષ્ટ્રપતિ": 3035,
      "સરખા": 3036,
      "સ્વચ્છ": 3037,
      "નિરાકરણ": 3038,
      "એમે": 3039,
      "જરૂરિયાતોને": 3040,
      "સંવેદ": 3041,
      "છલી": 3042,
      "જક": 3043,
      "લવ": 3044,
      "માછલી": 3045,
      "વાદી": 3046,
      "પ્રવાહ": 3047,
      "ગ્નિ": 3048,
      "કાળજી": 3049,
      "વળા": 3050,
      "પ્રાય": 3051,
      "બદલો": 3052,
      "બરા": 3053,
      "નેવિ": 3054,
      "રાસાયણ": 3055,
      "રમતો": 3056,
      "પદાર્થ": 3057,
      "રાસાયણિક": 3058,
      "લેવી": 3059,
      "વાથી": 3060,
      "રેડ": 3061,
      "અભિગમ": 3062,
      "he": 3063,
      "સંવાદ": 3064,
      "ખોળ": 3065,
      "શોધખોળ": 3066,
      "યુવાન": 3067,
      "દેશોમાં": 3068,
      "is": 3069,
      "પ્રોટી": 3070,
      "ઘટાડે": 3071,
      "પર્યાવરણને": 3072,
      "દાખલ": 3073,
      "મનોરંજન": 3074,
      "શાકા": 3075,
      "પોઝ": 3076,
      "નિયમ": 3077,
      "પ્રક્રિયામાં": 3078,
      "ડેવલ": 3079,
      "વ્યવસ્થા": 3080,
      "માણસ": 3081,
      "as": 3082,
      "આપીને": 3083,
      "જોબ": 3084,
      "કારણો": 3085,
      "બધું": 3086,
      "હાય": 3087,
      "િયસ": 3088,
      "આરા": 3089,
      "તૃ": 3090,
      "ભાષણ": 3091,
      "લસણ": 3092,
      "ચુક": 3093,
      "ભજ": 3094,
      "પ્રોટો": 3095,
      "દબાણ": 3096,
      "રોગચાળા": 3097,
      "ઇચ્છિત": 3098,
      "ચુકવણી": 3099,
      "ખરા": 3100,
      "સપ": 3101,
      "કર્ષ": 3102,
      "કાર્યસ્થળ": 3103,
      "લેપટોપ": 3104,
      "ંચે": 3105,
      "ગરિ": 3106,
      "સત્તા": 3107,
      "તિમ": 3108,
      "પાવ": 3109,
      "દિશા": 3110,
      "તેણીએ": 3111,
      "વિગતવાર": 3112,
      "શાકાહારી": 3113,
      "એર": 3114,
      "લડ": 3115,
      "ટિવ": 3116,
      "એન્જિન": 3117,
      "પાંદ": 3118,
      "ઘે": 3119,
      "બાસ્કેટ": 3120,
      "ડોર": 3121,
      "બંધાર": 3122,
      "એન્ટ": 3123,
      "જતાં": 3124,
      "નાગરિ": 3125,
      "કરેલી": 3126,
      "બેટ": 3127,
      "શિકા": 3128,
      "સમુદાય": 3129,
      "સપોર્ટ": 3130,
      "સિસ્ટમો": 3131,
      "અર્થઘટ": 3132,
      "ગ્રાહકોના": 3133,
      "સભ્યો": 3134,
      "ડાયોક્સાઇડ": 3135,
      "ઓપરે": 3136,
      "પરની": 3137,
      "ભૂલ": 3138,
      "રહેવાની": 3139,
      "પાયથો": 3140,
      "નિક્સ": 3141,
      "વર્ણવો": 3142,
      "જર્મ": 3143,
      "સિંગ": 3144,
      "વિપરી": 3145,
      "તાણ": 3146,
      "એકવાર": 3147,
      "મૃત્યુ": 3148,
      "લોગો": 3149,
      "પ્શન": 3150,
      "ઉત્તમ": 3151,
      "વર્તન": 3152,
      "વિપરીત": 3153,
      "ભૂતિ": 3154,
      "ઇન્ટરવ્ય": 3155,
      "નેતા": 3156,
      "નિષ્કર્ષ": 3157,
      "ડુંગળી": 3158,
      "કહ": 3159,
      "જળ": 3160,
      "જનો": 3161,
      "યિત": 3162,
      "જોઇએ": 3163,
      "રેન્ડ": 3164,
      "ક્રમણ": 3165,
      "સ્વાયત્": 3166,
      "ઇન્ટરફેસ": 3167,
      "ફ્લે": 3168,
      "છેલ્લા": 3169,
      "જોડાયેલા": 3170,
      "ઇંધણ": 3171,
      "નેવિગે": 3172,
      "સ્વાયત્ત": 3173,
      "13": 3174,
      "યોર્ક": 3175,
      "રોજગ": 3176,
      "બેકિંગ": 3177,
      "વ્યવસાયોને": 3178,
      "સ્ના": 3179,
      "ણાની": 3180,
      "વ્યાખ્યાયિત": 3181,
      "તથ": 3182,
      "સ્થાપક": 3183,
      "હળવા": 3184,
      "સમગ્ર": 3185,
      "પેક્ષ": 3186,
      "ધૂ": 3187,
      "હેડ": 3188,
      "જિં": 3189,
      "એપ્લિકેશન્સ": 3190,
      "અસ્તિત્વ": 3191,
      "ed": 3192,
      "ખ્ય": 3193,
      "અંતિમ": 3194,
      "ડૂ": 3195,
      "સ્સા": 3196,
      "સંશ્": 3197,
      "શાહી": 3198,
      "આત્મ": 3199,
      "અટકા": 3200,
      "ખાંડ": 3201,
      "પૃષ્ઠભૂમિ": 3202,
      "પુનરાવર્તિત": 3203,
      "નિર્ધારિત": 3204,
      "સંશ્લેષણ": 3205,
      "ઈટ": 3206,
      "ફર્": 3207,
      "જાવા": 3208,
      "રેશન": 3209,
      "મેમરી": 3210,
      "જૈ": 3211,
      "ન્ટે": 3212,
      "સ્વસ્થ": 3213,
      "સ્ટ્રક્ચર": 3214,
      "થતી": 3215,
      "માણો": 3216,
      "આંખો": 3217,
      "45": 3218,
      "ઝી": 3219,
      "માલિક": 3220,
      "બહાદુર": 3221,
      "લાક્ષણિકતા": 3222,
      "મના": 3223,
      "જૂથો": 3224,
      "ફાયદાઓ": 3225,
      "તકનીકોનો": 3226,
      "પુનઃપ્રાપ્ય": 3227,
      "કરતો": 3228,
      "મોટું": 3229,
      "પોર્": 3230,
      "મણી": 3231,
      "કરશો": 3232,
      "રીને": 3233,
      "જીવનને": 3234,
      "ઇન્ટરે": 3235,
      "ચિંતા": 3236,
      "અગ્ર": 3237,
      "હોમ": 3238,
      "આસપાસના": 3239,
      "દૂધ": 3240,
      "તફાવતો": 3241,
      "સ્રોતો": 3242,
      "થતા": 3243,
      "શિત": 3244,
      "શિંગ": 3245,
      "તેવું": 3246,
      "વિકલ્પ": 3247,
      "ઓએ": 3248,
      "નાખ": 3249,
      "છેલ્લે": 3250,
      "એકંદરે": 3251,
      "ટોક": 3252,
      "માળખું": 3253,
      "મૂર્": 3254,
      "યુનિ": 3255,
      "સ્વરૂ": 3256,
      "સરવાળો": 3257,
      "દરવા": 3258,
      "અક્ષર": 3259,
      "સસ્તન": 3260,
      "કહ્યું": 3261,
      "હાર્ડ": 3262,
      "સ્પા": 3263,
      "સારો": 3264,
      "ફાયદાકારક": 3265,
      "જાણીતા": 3266,
      "તાજેતરના": 3267,
      "અર્થઘટન": 3268,
      "ગતિશીલ": 3269,
      "ચક્ર": 3270,
      "ડિલિવ": 3271,
      "કચરો": 3272,
      "ભ્ર": 3273,
      "પાણીની": 3274,
      "મહેનત": 3275,
      "ચૂં": 3276,
      "જ્ય": 3277,
      "વૃદ્ધ": 3278,
      "ચૂક": 3279,
      "લેવો": 3280,
      "શોધમાં": 3281,
      "રિસાયક્": 3282,
      "આલ્": 3283,
      "નહો": 3284,
      "રૂપક": 3285,
      "પ્રતિનિધ": 3286,
      "સાપેક્ષ": 3287,
      "થોડી": 3288,
      "પહોંચવા": 3289,
      "મહાસા": 3290,
      "બરાબર": 3291,
      "લેશન": 3292,
      "વિશેષ": 3293,
      "પરિવર્તનની": 3294,
      "સાહિત્ય": 3295,
      "વ્યવસાયિક": 3296,
      "ગન": 3297,
      "નરમ": 3298,
      "એનબી": 3299,
      "પ્રતિનિધિત્વ": 3300,
      "ચેત": 3301,
      "મદાયક": 3302,
      "સીમા": 3303,
      "સંપત્તિ": 3304,
      "એલ્ગોરિધમ્સનો": 3305,
      "સંકળાયેલા": 3306,
      "કૌશલ": 3307,
      "કોષ્ટક": 3308,
      "આરામદાયક": 3309,
      "માલ": 3310,
      "નાણાં": 3311,
      "વિવિધતા": 3312,
      "રોજિં": 3313,
      "શબ્દોને": 3314,
      "અસંખ્ય": 3315,
      "સંદેશ": 3316,
      "સ્વપ્": 3317,
      "પ્રકારનું": 3318,
      "ચલ": 3319,
      "પિત": 3320,
      "ણાંક": 3321,
      "તુલનામાં": 3322,
      "ઇન્ટરેક્ટિવ": 3323,
      "lo": 3324,
      "સેલ્સ": 3325,
      "વૈકલ્પ": 3326,
      "વૈકલ્પિક": 3327,
      "ુઅલ": 3328,
      "લેવાનું": 3329,
      "ent": 3330,
      "ઓન": 3331,
      "તેમનો": 3332,
      "ઓટોમેશન": 3333,
      "બીજું": 3334,
      "ડિલિવરી": 3335,
      "ટ્રો": 3336,
      "પ્રવાહી": 3337,
      "વિનં": 3338,
      "બેરી": 3339,
      "ંભી": 3340,
      "નવો": 3341,
      "ભંડો": 3342,
      "બાહ": 3343,
      "હાથી": 3344,
      "ગાડ": 3345,
      "નજીકના": 3346,
      "વર્ચુઅલ": 3347,
      "વફાદારી": 3348,
      "અઠવાડિયા": 3349,
      "મિશન": 3350,
      "વિનંતી": 3351,
      "ચાવી": 3352,
      "સર્વ": 3353,
      "સ્વીકાર": 3354,
      "વાક્યોમાં": 3355,
      "આગ": 3356,
      "ઉલ્": 3357,
      "યં": 3358,
      "શોપિંગ": 3359,
      "નંબ": 3360,
      "સ્ટેટ્સમાં": 3361,
      "ભંડોળ": 3362,
      "ગંભી": 3363,
      "સાયબર": 3364,
      "ગંભીર": 3365,
      "એકા": 3366,
      "એન્ટિ": 3367,
      "વર્ષો": 3368,
      "પ્રેક્ષકો": 3369,
      "અંધકાર": 3370,
      "અનુભવી": 3371,
      "સ્ટેટ": 3372,
      "આગાહીઓ": 3373,
      "જાળવવા": 3374,
      "નેસ": 3375,
      "માંડીને": 3376,
      "સ્ત્રી": 3377,
      "કેસ": 3378,
      "ડામાં": 3379,
      "બાહ્ય": 3380,
      "શૂ": 3381,
      "અપના": 3382,
      "અનુભવને": 3383,
      "મૂલ્યવાન": 3384,
      "ટ્રાફિક": 3385,
      "ગ્રીનહાઉસ": 3386,
      "માહિતીને": 3387,
      "પેન": 3388,
      "માર્ગો": 3389,
      "રિસાયક્લિંગ": 3390,
      "કેક": 3391,
      "રૂપે": 3392,
      "અનુસરે": 3393,
      "છોડી": 3394,
      "જુઓ": 3395,
      "સામગ્રીને": 3396,
      "મુક": 3397,
      "ડેટાસેટ": 3398,
      "ફાઇલ": 3399,
      "લક્ષણો": 3400,
      "મ્યુઝ": 3401,
      "જથ્": 3402,
      "નશીલ": 3403,
      "સેલ": 3404,
      "બ્લોકચેન": 3405,
      "ઇસ": 3406,
      "એસિ": 3407,
      "હૂં": 3408,
      "તોફા": 3409,
      "પાણીના": 3410,
      "થવું": 3411,
      "ભાષાના": 3412,
      "જાળવણી": 3413,
      "વિગતો": 3414,
      "વનસ્પ": 3415,
      "કિં": 3416,
      "ધ્યેય": 3417,
      "પાવડર": 3418,
      "કણો": 3419,
      "ઠંડ": 3420,
      "અભિવ્યક્તિ": 3421,
      "પ્રારંભિક": 3422,
      "ic": 3423,
      "ૃતિ": 3424,
      "પ્રી": 3425,
      "ઉત્તર": 3426,
      "સ્કોર": 3427,
      "એનાલિ": 3428,
      "અદ": 3429,
      "વધતા": 3430,
      "લિયો": 3431,
      "અક્ષરો": 3432,
      "તારાઓ": 3433,
      "દ્રષ્ટિએ": 3434,
      "વળાંક": 3435,
      "પાંદડા": 3436,
      "વપરાય": 3437,
      "મશીનો": 3438,
      "સંપાદિત": 3439,
      "કરિયા": 3440,
      "કોણે": 3441,
      "બનાવ્યું": 3442,
      "થવાની": 3443,
      "આવેલી": 3444,
      "કચરા": 3445,
      "સ્વરૂપો": 3446,
      "લિન": 3447,
      "ભાગમાં": 3448,
      "લાઇઝેશન": 3449,
      "મહિલા": 3450,
      "ઓક્સિજન": 3451,
      "રહેલા": 3452,
      "અભિપ્રાય": 3453,
      "કર્મચારીઓને": 3454,
      "વિભાજિત": 3455,
      "વર્તણૂ": 3456,
      "બાઉલમાં": 3457,
      "જોડ": 3458,
      "ચારિક": 3459,
      "સાંસ્": 3460,
      "ઉત્પાદનની": 3461,
      "વિઝન": 3462,
      "સાંસ્કૃતિક": 3463,
      "પૂર્વધાર": 3464,
      "ટાઇમ": 3465,
      "ઠ્": 3466,
      "સ્ક્રી": 3467,
      "લાવે": 3468,
      "કેટલા": 3469,
      "કાર્યક્રમો": 3470,
      "કાઢો": 3471,
      "ફ્રાન્સ": 3472,
      "કાલે": 3473,
      "લંબ": 3474,
      "પેટર્": 3475,
      "પાલતુ": 3476,
      "il": 3477,
      "નાનો": 3478,
      "આપવી": 3479,
      "સમૃ": 3480,
      "ણાત્મક": 3481,
      "મૂકે": 3482,
      "ગરીબી": 3483,
      "રોજિંદા": 3484,
      "દ્યો": 3485,
      "લનો": 3486,
      "કેને": 3487,
      "કડક": 3488,
      "પોષક": 3489,
      "સિદ્ધિ": 3490,
      "ફૂલો": 3491,
      "બગીચા": 3492,
      "આદર્": 3493,
      "ડિટ": 3494,
      "સમયસર": 3495,
      "આંતરિક": 3496,
      "કમ": 3497,
      "તત્વ": 3498,
      "પં": 3499,
      "પચારિક": 3500,
      "સુપર": 3501,
      "સિસ": 3502,
      "વાઈ": 3503,
      "હોવો": 3504,
      "સૂત્ર": 3505,
      "ઘટાડવાની": 3506,
      "ઓલિવ": 3507,
      "સુંદરતા": 3508,
      "ઉંમર": 3509,
      "કૂતરો": 3510,
      "ડિસ્કાઉન્ટ": 3511,
      "મેન્યુ": 3512,
      "્સમાં": 3513,
      "સમાધાન": 3514,
      "પર્વત": 3515,
      "રેન્ડમ": 3516,
      "સ્ટિ": 3517,
      "જોડાવા": 3518,
      "40": 3519,
      "વચ્ચેની": 3520,
      "પ્રદર્શિત": 3521,
      "થયેલ": 3522,
      "ફકરો": 3523,
      "પેપર": 3524,
      "વિઝ્યુઅલ": 3525,
      "ઉદ્યોગમાં": 3526,
      "પક્ષીઓ": 3527,
      "દૈ": 3528,
      "માને": 3529,
      "મોટે": 3530,
      "પ્રમાણે": 3531,
      "દસ્તાવેજો": 3532,
      "ડકા": 3533,
      "બપો": 3534,
      "જીવનના": 3535,
      "ઘટનાઓ": 3536,
      "સંતુલિત": 3537,
      "----": 3538,
      "આર્ટ": 3539,
      "ચકાસ": 3540,
      "સ્પી": 3541,
      "પાડવામાં": 3542,
      "ગ્ન": 3543,
      "સમજણ": 3544,
      "જંગલમાં": 3545,
      "પાડી": 3546,
      "વર્તુ": 3547,
      "અમુક": 3548,
      "૨૦": 3549,
      "પ્રામાણ": 3550,
      "int": 3551,
      "પ્રામાણિક": 3552,
      "આના": 3553,
      "ઇંચ": 3554,
      "કોવિડ": 3555,
      "મોડ": 3556,
      "અવરોધ": 3557,
      "કોલે": 3558,
      "ભુત": 3559,
      "બ્રહ્માંડ": 3560,
      "ay": 3561,
      "કટ": 3562,
      "ભરી": 3563,
      "સમર્": 3564,
      "સેટ્સ": 3565,
      "વ્યવસ્થાપ": 3566,
      "ડ્રાઇવ": 3567,
      "સર્વેક્ષણ": 3568,
      "bo": 3569,
      "ઊર્જાનો": 3570,
      "સંસાધનોની": 3571,
      "પ્રતિબિંબિત": 3572,
      "ગુલા": 3573,
      "પ્રક્રિયાઓ": 3574,
      "ચળવળ": 3575,
      "વનસ્પતિ": 3576,
      "ન્સી": 3577,
      "સમજાવવા": 3578,
      "પ્રકારનાં": 3579,
      "ખરાબ": 3580,
      "ટેલ": 3581,
      "પાઇ": 3582,
      "અનિ": 3583,
      "મેડ": 3584,
      "પાલન": 3585,
      "મોકલ": 3586,
      "એનએલ": 3587,
      "પોતાનું": 3588,
      "બનવા": 3589,
      "વલણ": 3590,
      "ac": 3591,
      "અના": 3592,
      "અંદાજ": 3593,
      "્રુ": 3594,
      "લેસ": 3595,
      "એપલ": 3596,
      "મ્બ": 3597,
      "કિરણો": 3598,
      "બાબતો": 3599,
      "પૂર્વધારણા": 3600,
      "ધર્મો": 3601,
      "ષિ": 3602,
      "વધતી": 3603,
      "ખરીદવા": 3604,
      "તારીખ": 3605,
      "અદ્": 3606,
      "નમૂ": 3607,
      "કોઈને": 3608,
      "ફાયર": 3609,
      "રોબોટિક્સ": 3610,
      "ચિંતાઓ": 3611,
      "ઝન": 3612,
      "નેચર": 3613,
      "કોર્": 3614,
      "મોક": 3615,
      "લ્ફ": 3616,
      "ડેટામાં": 3617,
      "તિહાસિક": 3618,
      "અવરોધો": 3619,
      "ચકા": 3620,
      "રચાયેલ": 3621,
      "સમસ્યાનું": 3622,
      "all": 3623,
      "વર્તણૂક": 3624,
      "ચન": 3625,
      "ડુ": 3626,
      "માનું": 3627,
      "નિશ": 3628,
      "્સની": 3629,
      "ગોલ્ડ": 3630,
      "મિક્સ": 3631,
      "નીચેનાં": 3632,
      "મુદ્દાઓ": 3633,
      "નાર્": 3634,
      "થીમ": 3635,
      "ક્રિપ્શન": 3636,
      "અગાઉ": 3637,
      "ડિવાઇ": 3638,
      "નાગર": 3639,
      "ખોલ": 3640,
      "રચનાત્મક": 3641,
      "શીખી": 3642,
      "જાગૃતિ": 3643,
      "પુરાવા": 3644,
      "નાગરિક": 3645,
      "ઔદ્યો": 3646,
      "પન": 3647,
      "વેપાર": 3648,
      "ભાગો": 3649,
      "લીલા": 3650,
      "પૂછપર": 3651,
      "અપડેટ": 3652,
      "et": 3653,
      "જમાં": 3654,
      "ટામેટા": 3655,
      "મૂં": 3656,
      "એન્જિનિયરિંગ": 3657,
      "અદ્ભુત": 3658,
      "ઉજ": 3659,
      "ઓર્": 3660,
      "સમજી": 3661,
      "સુખા": 3662,
      "ચાર્ટ": 3663,
      "અધિકારો": 3664,
      "સુખાકારી": 3665,
      "બેંક": 3666,
      "વાક્યનું": 3667,
      "તાજેતરમાં": 3668,
      "આઇટ": 3669,
      "લેવાતા": 3670,
      "લક્ષી": 3671,
      "કોડિંગ": 3672,
      "એમેઝોન": 3673,
      "AI": 3674,
      "સમયરેખા": 3675,
      "ચોક": 3676,
      "સ્પર્ધાત્મક": 3677,
      "મનોરંજક": 3678,
      "દેખાવ": 3679,
      "આદર્શ": 3680,
      "am": 3681,
      "ver": 3682,
      "ડાની": 3683,
      "જવાબો": 3684,
      "લ્યુશન": 3685,
      "વિરોધી": 3686,
      "ંગા": 3687,
      "આપ્યો": 3688,
      "શાખા": 3689,
      "ડેટાનું": 3690,
      "ખૂણા": 3691,
      "કાર્બ": 3692,
      "હાઇડ્રો": 3693,
      "ઇટા": 3694,
      "ગિક": 3695,
      "વધારવામાં": 3696,
      "ંતિક": 3697,
      "એજ": 3698,
      "છૂ": 3699,
      "વાલો": 3700,
      "કેમે": 3701,
      "ખાદ્ય": 3702,
      ").": 3703,
      "અચા": 3704,
      "બાંધ": 3705,
      "શબ્દોની": 3706,
      "બ્લેક": 3707,
      "પૂછપરછ": 3708,
      "મૂંઝ": 3709,
      "અચાનક": 3710,
      "હવામાનની": 3711,
      "સંકળાયેલ": 3712,
      "સભર": 3713,
      "ગેમ": 3714,
      "વધારાની": 3715,
      "પેકે": 3716,
      "મીટિંગ": 3717,
      "વ્યક્તિની": 3718,
      "બ્રાઉન": 3719,
      "ભરેલું": 3720,
      "વૈજ્ઞાનિકો": 3721,
      "ચિહ્નો": 3722,
      "નબળા": 3723,
      "ગ્રામ": 3724,
      "ટિન": 3725,
      "પ્રકારનો": 3726,
      "આર્કિ": 3727,
      "ક્ષેત્રોમાં": 3728,
      "રાત્રિ": 3729,
      "સમાયોજિત": 3730,
      "ગાળાના": 3731,
      "તબક્કા": 3732,
      "મળ્યો": 3733,
      "ચીજ": 3734,
      "ડેવલપ": 3735,
      "સ્કૂ": 3736,
      "બળત": 3737,
      "પ્રોટીન": 3738,
      "હેન્ડ": 3739,
      "વાદળો": 3740,
      "પૂરતી": 3741,
      "આફ્રિ": 3742,
      "નીકળ": 3743,
      "જેઓ": 3744,
      "ઉત્તે": 3745,
      "સૂર્યપ્રકાશ": 3746,
      "સ્ત્રોત": 3747,
      "for": 3748,
      "તૂ": 3749,
      "રિય": 3750,
      "ગ્રહો": 3751,
      "પુરવ": 3752,
      "મિલિયન": 3753,
      "સ્પિ": 3754,
      "ખર્ચમાં": 3755,
      "ટ્રાન્સ": 3756,
      "વધારાના": 3757,
      "આફ્રિકા": 3758,
      "હમ": 3759,
      "ંવાર": 3760,
      "સેન્": 3761,
      "વારંવાર": 3762,
      "જંગલો": 3763,
      "છબીઓ": 3764,
      "સ્વરૂપમાં": 3765,
      "પ્રવાસ": 3766,
      "વૈજ્ા": 3767,
      "વૈજ્ાનિક": 3768,
      "કળી": 3769,
      "જતા": 3770,
      "ઉપયોગને": 3771,
      "2020": 3772,
      "ઓછો": 3773,
      "ઘન": 3774,
      "જંતુ": 3775,
      "પાસવર્ડ": 3776,
      "નોકરીની": 3777,
      "નેટવર્ક્સ": 3778,
      "સજા": 3779,
      "પ્રભાવિ": 3780,
      "વિદ": 3781,
      "લોડ": 3782,
      "સમયની": 3783,
      "ઇન્સ્ટો": 3784,
      "પ્રભાવિત": 3785,
      "ણક": 3786,
      "નીતિઓ": 3787,
      "ઢી": 3788,
      "મોટાભાગ": 3789,
      "લાગતું": 3790,
      "ઈન્ટ": 3791,
      "સાથેના": 3792,
      "ખોટું": 3793,
      "મોડેલને": 3794,
      "પાયથોન": 3795,
      "ઔદ્યોગિક": 3796,
      "પુષ્": 3797,
      "ચિહ્ન": 3798,
      "ગૂગલ": 3799,
      "મસ": 3800,
      "તાનું": 3801,
      "લર્નિંગનો": 3802,
      "સ્થાપના": 3803,
      "કન્ટેન્ટ": 3804,
      "..": 3805,
      "સિં": 3806,
      "પ્રક્રિયાને": 3807,
      "માત્રામાં": 3808,
      "સંવેદનશીલ": 3809,
      "દોર": 3810,
      "ક્લાસિક": 3811,
      "ચિકન": 3812,
      "કયો": 3813,
      "ભવિષ્યમાં": 3814,
      "ક્રેડિટ": 3815,
      "um": 3816,
      "પાઠ": 3817,
      "દૂષિત": 3818,
      "ભર્યા": 3819,
      "પરથી": 3820,
      "આત્મવિશ્વાસ": 3821,
      "24": 3822,
      "વહી": 3823,
      "્સનો": 3824,
      "પોતાનો": 3825,
      "પૂર્વગ્રહ": 3826,
      "કપડાં": 3827,
      "વયના": 3828,
      "ur": 3829,
      "આમ": 3830,
      "ફેક્ટ": 3831,
      "બનાવવાનો": 3832,
      "સ્વર": 3833,
      "કાઢી": 3834,
      "ચેટબોટ": 3835,
      "દૈનિક": 3836,
      "લિય": 3837,
      "માતાપ": 3838,
      "વિસ": 3839,
      "વ્યૂહરચનાઓ": 3840,
      "ચલાવવા": 3841,
      "પ્રભાવશાળી": 3842,
      "પુષ્કળ": 3843,
      "માતાપિ": 3844,
      "જશે": 3845,
      "કૃષિ": 3846,
      "ફાયદો": 3847,
      "ટૂલ્સ": 3848,
      "એમ્": 3849,
      "બટા": 3850,
      "લીટી": 3851,
      "ડીપ": 3852,
      "રહેતા": 3853,
      "ડ્રાઇવિંગ": 3854,
      "લેક્": 3855,
      "સાથેની": 3856,
      "છોકરી": 3857,
      "બાળકોને": 3858,
      "ચૂંટણી": 3859,
      "્યે": 3860,
      "સુધારવામાં": 3861,
      "ટીમના": 3862,
      "એનએલપી": 3863,
      "રાં": 3864,
      "આપતા": 3865,
      "નિશ્ચય": 3866,
      "વિઝ્યુ": 3867,
      "લેન્ડસ્કે": 3868,
      "પ્રતિબંધ": 3869,
      "સવારે": 3870,
      "પ્રતીક": 3871,
      ".-": 3872,
      "સંચાર": 3873,
      "રજૂઆત": 3874,
      "199": 3875,
      "દેશમાં": 3876,
      "સમૃદ્ધ": 3877,
      "વિદ્યુ": 3878,
      "ટ્રી": 3879,
      "સવાર": 3880,
      "મેરી": 3881,
      "વર્ડ્સ": 3882,
      "હાંસ": 3883,
      "માર્ગદર્શન": 3884,
      "ટની": 3885,
      "મણો": 3886,
      "ૂની": 3887,
      "જાપા": 3888,
      "ડાના": 3889,
      "સુધીના": 3890,
      "કર્મચારીઓ": 3891,
      "તથ્યો": 3892,
      "કિંમ": 3893,
      "વિદ્યુત": 3894,
      "ંબુ": 3895,
      "જ્યો": 3896,
      "સંકલ": 3897,
      "કામદ": 3898,
      "પુખ્": 3899,
      "વાર્તાઓ": 3900,
      "સ્તો": 3901,
      "અનુમાન": 3902,
      "ફિલ્ટ": 3903,
      "tr": 3904,
      "ટ્ર": 3905,
      "પૂર્ણાંક": 3906,
      "યુએસ": 3907,
      "ટેક્નો": 3908,
      "એમએલ": 3909,
      "માપવા": 3910,
      "યુનિવર્": 3911,
      "કેલિ": 3912,
      "સાચા": 3913,
      "એકસાથે": 3914,
      "પાસા": 3915,
      "પ્રોસે": 3916,
      "ધાન્ય": 3917,
      "નિર્ણાયક": 3918,
      "ગુણધર્મો": 3919,
      "પસંદગીઓ": 3920,
      "તાપમાનમાં": 3921,
      "સ્પેનિશ": 3922,
      "દસ્તાવેજ": 3923,
      "આત્ય": 3924,
      "કટોક": 3925,
      "ઉત્સાહિત": 3926,
      "દોડ": 3927,
      "જર્મની": 3928,
      "ચોકલેટ": 3929,
      "આત્યંતિક": 3930,
      "કટોકટી": 3931,
      "ઓપ્ટિમાઇઝ": 3932,
      "મલ્ટ": 3933,
      "વિજ્ઞા": 3934,
      "શેરી": 3935,
      "ડાઉન": 3936,
      "રસ્તો": 3937,
      "પિક": 3938,
      "નાનું": 3939,
      "વીને": 3940,
      "પેરિ": 3941,
      "એનએ": 3942,
      "દરેકને": 3943,
      "શાંતિપૂર્ણ": 3944,
      "સને": 3945,
      "કેટલું": 3946,
      "નેચરલ": 3947,
      "ધ્વ": 3948,
      "આંકડાકીય": 3949,
      "ંદ": 3950,
      "કેટે": 3951,
      "કારની": 3952,
      "સરકારો": 3953,
      "સમજવામાં": 3954,
      "com": 3955,
      "ve": 3956,
      "ળના": 3957,
      "કેમ્પ": 3958,
      "રેન્": 3959,
      "સંકળાયે": 3960,
      "પરવાનગી": 3961,
      "જેમણે": 3962,
      "ભારતમાં": 3963,
      "વિશેષણો": 3964,
      "નહિ": 3965,
      "ચાઇ": 3966,
      "બાઇ": 3967,
      "પ્રોગ્રામ્સ": 3968,
      "ખુલ્લા": 3969,
      "બજારમાં": 3970,
      "ઠ્ઠી": 3971,
      "ad": 3972,
      "નીચા": 3973,
      "ખર્ચા": 3974,
      "પુખ્ત": 3975,
      "આખા": 3976,
      "બદા": 3977,
      "કરતું": 3978,
      "રેસ્ટ": 3979,
      "દેશી": 3980,
      "સ્તરને": 3981,
      "સંસ્થાઓ": 3982,
      "ઠંડી": 3983,
      "લખી": 3984,
      "માય": 3985,
      "ધ્યેયો": 3986,
      "60": 3987,
      "સ્તરો": 3988,
      "બેલ": 3989,
      "ધાની": 3990,
      "ગાજર": 3991,
      "વિધ્ય": 3992,
      "વૈવિધ્ય": 3993,
      "સ્થિતિસ્થાપક": 3994,
      "સંતુલન": 3995,
      "શંકા": 3996,
      "ight": 3997,
      "કાર્બનિક": 3998,
      "ફં": 3999,
      "પ્રાધાન્ય": 4000,
      "પાણીનો": 4001,
      "્રિક્સ": 4002,
      "બ્રિટી": 4003,
      "ઐતિહાસિક": 4004,
      "હળ": 4005,
      "લેખક": 4006,
      "રાજધાની": 4007,
      "મનપસંદ": 4008,
      "સર્વર": 4009,
      "શકતો": 4010,
      "ભરેલી": 4011,
      "હલા": 4012,
      "વ્યસ્ત": 4013,
      "ભાવનાત્મક": 4014,
      "મહિના": 4015,
      "ભવ્ય": 4016,
      "વિસ્": 4017,
      "સુખ": 4018,
      "બેગ": 4019,
      "વિશ્વને": 4020,
      "પ્રશ્નોના": 4021,
      "સંસ્કૃતિઓ": 4022,
      "પ્ટિમાઇઝેશન": 4023,
      "કુટુંબ": 4024,
      "ઉપાય": 4025,
      "નમ્ર": 4026,
      "બાય": 4027,
      "ers": 4028,
      "ખેલાડીઓ": 4029,
      "ક્રીમ": 4030,
      "કેટેગરી": 4031,
      "આય": 4032,
      "ઉર્જા": 4033,
      "ઓફિ": 4034,
      "ભરા": 4035,
      "કરાર": 4036,
      "ટેસ્ટ": 4037,
      "તાજી": 4038,
      "વ્યક્તિના": 4039,
      "થોડો": 4040,
      "બ્રાઉ": 4041,
      "અલ્ગોરિધમ": 4042,
      "કેમેરા": 4043,
      "ણિત": 4044,
      "શ્યો": 4045,
      "રાખવી": 4046,
      "નિયમિતપણે": 4047,
      "ચપ": 4048,
      "કોના": 4049,
      "વ્યક્તિઓને": 4050,
      "હતાં": 4051,
      "સંખ્યામાં": 4052,
      "198": 4053,
      "કાનૂની": 4054,
      "માલિકી": 4055,
      "ઉજવણી": 4056,
      "ટ્રિ": 4057,
      "બ્રો": 4058,
      "લય": 4059,
      "સ્મિ": 4060,
      "વેકેશન": 4061,
      "તેમનું": 4062,
      "યાળ": 4063,
      "પ્રક્રિયાઓને": 4064,
      "સાહસિક": 4065,
      "સિસ્ટમમાં": 4066,
      "સુલભતા": 4067,
      "કસ્ટમાઇ": 4068,
      "આગે": 4069,
      "જવું": 4070,
      "ઉષ્": 4071,
      "દેખાય": 4072,
      "મૂર્ત": 4073,
      "આર્કિટેક્": 4074,
      "આમં": 4075,
      "ઘુ": 4076,
      "મૌ": 4077,
      "નીય": 4078,
      "ક્ષ્": 4079,
      "દોષ": 4080,
      "ગાણિત": 4081,
      "શિક્ષિત": 4082,
      "નવીનતમ": 4083,
      "પહેર": 4084,
      "સ્કેલ": 4085,
      "કાતી": 4086,
      "પાળ": 4087,
      "જોડી": 4088,
      "રેક": 4089,
      "ન્ડર": 4090,
      "પ્રકાશસંશ્લેષણ": 4091,
      "ભેદ": 4092,
      "75": 4093,
      "ep": 4094,
      "નેશનલ": 4095,
      "નાસ્તા": 4096,
      "ર્જ": 4097,
      "ટામિ": 4098,
      "un": 4099,
      "શકશે": 4100,
      "રહસ્યો": 4101,
      "કેન": 4102,
      "ચાલો": 4103,
      "શોધવામાં": 4104,
      "રાજ્યો": 4105,
      "સ્નાયુ": 4106,
      "મૂંઝવણ": 4107,
      "શકતા": 4108,
      "સ્લા": 4109,
      "ક્વિ": 4110,
      "વવાનું": 4111,
      "મ્બર": 4112,
      "ગૌ": 4113,
      "ટમાં": 4114,
      "મેચ": 4115,
      "ખોટી": 4116,
      "ટીમો": 4117,
      "સ્પદ": 4118,
      "સંપૂર્ણપણે": 4119,
      "કાર્યક્ષમતામાં": 4120,
      "બેટરી": 4121,
      "ડેવલપમેન્ટ": 4122,
      "અવત": 4123,
      "મર્સ": 4124,
      "આપશે": 4125,
      "ચેમ્પ": 4126,
      "લોકોએ": 4127,
      "સ્પેસ": 4128,
      "પ્રસ્તુત": 4129,
      "વ્યવસ્થાપન": 4130,
      "વિટામિ": 4131,
      "પુલ": 4132,
      "ડેટામાંથી": 4133,
      "સુગંધ": 4134,
      "સેન્ડ": 4135,
      "સુધીમાં": 4136,
      "મેટ્રિક્સ": 4137,
      "ri": 4138,
      "ત્વે": 4139,
      "ઉદાહરણોમાં": 4140,
      "મુખ્યત્વે": 4141,
      "સ્ટેપ": 4142,
      "દરિયાઇ": 4143,
      "વેલ": 4144,
      "મુખી": 4145,
      "ટુકડાઓ": 4146,
      "ગાણિતિક": 4147,
      "લીધી": 4148,
      "જાળવી": 4149,
      "ભલામણો": 4150,
      "વિસ્તારોમાં": 4151,
      "વિઝ્યુલાઇઝેશન": 4152,
      "ફાઈ": 4153,
      "ગોપનીયતા": 4154,
      "સપ્": 4155,
      "યુનિવર્સિટી": 4156,
      "ંદર": 4157,
      "બર્ટ": 4158,
      "ક્રા": 4159,
      "ple": 4160,
      "તાર્ક": 4161,
      "વવો": 4162,
      "માંની": 4163,
      "રીંછ": 4164,
      "પોપ": 4165,
      "ટેકનોલોજીનો": 4166,
      "કનેક્ટ": 4167,
      "આંખ": 4168,
      "તાર્કિક": 4169,
      "થિય": 4170,
      "વેરા": 4171,
      "સૌંદર": 4172,
      "કિસ્સા": 4173,
      "દિવસે": 4174,
      "આશ્ચર્યજનક": 4175,
      "સૌંદર્ય": 4176,
      "ion": 4177,
      "કેલા": 4178,
      "ટાળ": 4179,
      "દાયો": 4180,
      "દ્વિ": 4181,
      "ખાલી": 4182,
      "લેખન": 4183,
      "કાળા": 4184,
      "જાતિ": 4185,
      "લીધા": 4186,
      "ખાન": 4187,
      "કેટલો": 4188,
      "સાન": 4189,
      "હાલના": 4190,
      "શિકાર": 4191,
      "મેળવો": 4192,
      "જંગલી": 4193,
      "તૃત્વ": 4194,
      "સાયન્સ": 4195,
      "મંડ": 4196,
      "નિષ્ણા": 4197,
      "હાર્ડવેર": 4198,
      "કરિયાણાની": 4199,
      "us": 4200,
      "હસ્ત": 4201,
      "સેમી": 4202,
      "ચાલી": 4203,
      "દ્રા": 4204,
      "મુદ્દો": 4205,
      "ચેતવણી": 4206,
      "કઠો": 4207,
      "મથા": 4208,
      "વસ": 4209,
      "બિઝ": 4210,
      "ચરબી": 4211,
      "લોકશાહી": 4212,
      "રુચિ": 4213,
      "તૈયારી": 4214,
      "દુનિયામાં": 4215,
      "હમણાં": 4216,
      "હાંસલ": 4217,
      "લોસ": 4218,
      "શેડ": 4219,
      "દર્શાવવામાં": 4220,
      "એલ્ગોરિધમ": 4221,
      "કલાકો": 4222,
      "આર્કિટેક્ચર": 4223,
      "આશ": 4224,
      "એનિ": 4225,
      "યુગ": 4226,
      "ત્વચા": 4227,
      "કંપોઝ": 4228,
      "ખડ": 4229,
      "ીય": 4230,
      "ેલી": 4231,
      "સાત": 4232,
      "લોન": 4233,
      "મોનિ": 4234,
      "પ્રાણીઓની": 4235,
      "રોકવા": 4236,
      "મજાક": 4237,
      "ઓવર": 4238,
      "ગાય": 4239,
      "ભલે": 4240,
      "લિયા": 4241,
      "નેતૃત્વ": 4242,
      "એકલ": 4243,
      "જોખમી": 4244,
      "બનાવવું": 4245,
      "તેણીને": 4246,
      "ખર્ચાળ": 4247,
      "જય": 4248,
      "માથા": 4249,
      "ચેક": 4250,
      "મળ્યું": 4251,
      "છુપા": 4252,
      "],": 4253,
      "અતિ": 4254,
      "ગું": 4255,
      "ચૂ": 4256,
      "રને": 4257,
      "હકી": 4258,
      "જેક": 4259,
      "પાત": 4260,
      "્સના": 4261,
      "ડાઇ": 4262,
      "ગાઈ": 4263,
      "ઠીક": 4264,
      "ખસે": 4265,
      "નાસ્તો": 4266,
      "સમાનાર્": 4267,
      "ક્ટો": 4268,
      "સંતુષ્ટ": 4269,
      "રિસાયકલ": 4270,
      "સમાનાર્થી": 4271,
      "ut": 4272,
      "ડ્રો": 4273,
      "ત્યા": 4274,
      "વિત": 4275,
      "હોસ્ટ": 4276,
      "વપરાશકર્તાની": 4277,
      "સમુદાયો": 4278,
      "ઘોષ": 4279,
      "જૈવ": 4280,
      "બલ્": 4281,
      "ડીઓ": 4282,
      "સાર્વ": 4283,
      "પ્રતિબદ્ધ": 4284,
      "બંધી": 4285,
      "માનવીય": 4286,
      "ઇન્સ્ટોલ": 4287,
      "કેલિફોર્": 4288,
      "પકા": 4289,
      "વર્ગો": 4290,
      "સ્વયં": 4291,
      "રહેઠા": 4292,
      "પ્લાય": 4293,
      "ઊંચાઈ": 4294,
      "કેલિફોર્નિયા": 4295,
      "500": 4296,
      "હારો": 4297,
      "અનેક": 4298,
      "રેસ્ટો": 4299,
      "દૂરના": 4300,
      "શહેરની": 4301,
      "આઇફોન": 4302,
      "સ્મિથ": 4303,
      "રેસ્ટોરાં": 4304,
      "વિલ": 4305,
      "હાસ": 4306,
      "ટામેટાં": 4307,
      "ખબર": 4308,
      "નાનક": 4309,
      "રાજા": 4310,
      "આવરી": 4311,
      "પહોંચે": 4312,
      "આસપાસની": 4313,
      "લાગણીઓ": 4314,
      "એનાલિટિક્સ": 4315,
      "માંસ": 4316,
      "હેઠ": 4317,
      "ભાગે": 4318,
      "યુનિય": 4319,
      "ગુમા": 4320,
      "શક્યતા": 4321,
      "પ્રસ્તુતિ": 4322,
      "ઓઇલ": 4323,
      "રસી": 4324,
      "વડા": 4325,
      "પ્રથા": 4326,
      "બનાવવાનું": 4327,
      "ફાળ": 4328,
      "ક્ષેત્રફળ": 4329,
      "રાહત": 4330,
      "પ્રતિનિધિ": 4331,
      "હકીક": 4332,
      "વેક્ટર": 4333,
      "તરત": 4334,
      "થિ": 4335,
      "રેખી": 4336,
      "અનુવાદ": 4337,
      "ગ્રેટ": 4338,
      "સંપર્કમાં": 4339,
      "શાસ્ત્રી": 4340,
      "ટેકનિક": 4341,
      "જથ્થા": 4342,
      "મલ્ટિ": 4343,
      "રેખીય": 4344,
      "અર્ક": 4345,
      "રના": 4346,
      "એકી": 4347,
      "હાઈ": 4348,
      "બોક્સ": 4349,
      "વાનગીઓ": 4350,
      "શિક્ષક": 4351,
      "યુરોપિયન": 4352,
      "પુરસ્કાર": 4353,
      "ગ્નિશન": 4354,
      "li": 4355,
      "ta": 4356,
      "ભઠ્ઠી": 4357,
      "મંગ": 4358,
      "સ્થાના": 4359,
      "ઉત્સર્જનને": 4360,
      "વિક્ષેપ": 4361,
      "ચર્સ": 4362,
      "ળની": 4363,
      "ગ્રાફ": 4364,
      "ળીને": 4365,
      "ગુપ્ત": 4366,
      "દૃષ્ટિકોણ": 4367,
      "રોજગારી": 4368,
      "આશરે": 4369,
      "મિત્રતા": 4370,
      "છેતર": 4371,
      "જાણે": 4372,
      "વન્ય": 4373,
      "જવાનું": 4374,
      "દિવસની": 4375,
      "કહેવત": 4376,
      "કાળજીપૂર્વક": 4377,
      "સાવ": 4378,
      "સરણી": 4379,
      "ખાતા": 4380,
      "મેળવે": 4381,
      "સમસ્યાને": 4382,
      "રેકગ્નિશન": 4383,
      "સજીવો": 4384,
      "જ્જ": 4385,
      "ક્ષમતાઓ": 4386,
      "ક્રિપ્ટો": 4387,
      "સહિતના": 4388,
      "આકૃતિ": 4389,
      "કોન્": 4390,
      "વ્યવહારો": 4391,
      "સુધારા": 4392,
      "તળાવ": 4393,
      "મોનિટર": 4394,
      "પકાવવાની": 4395,
      "અડ": 4396,
      "છાય": 4397,
      "દન": 4398,
      "બીજો": 4399,
      "સ્ટોરી": 4400,
      "પ્રાણીઓને": 4401,
      "શ્રેય": 4402,
      "એચટી": 4403,
      "એલિસ": 4404,
      "ફ્રી": 4405,
      "્ડ": 4406,
      "ત્સર્": 4407,
      "ન્ટ્સ": 4408,
      "ગ્રાફિક": 4409,
      "ઉત્સાહ": 4410,
      "મૂકી": 4411,
      "રાખવું": 4412,
      "કંપનીના": 4413,
      "વિકાસને": 4414,
      "જાણીતી": 4415,
      "મધ્યમાં": 4416,
      "માર્ગદર્શિકા": 4417,
      "ઘેરા": 4418,
      "કિરણોત્સર્": 4419,
      "ઠંડા": 4420,
      "સહા": 4421,
      "વાગ": 4422,
      "બિલ્ડ": 4423,
      "નિષ્ક્રિય": 4424,
      "ટોચના": 4425,
      "રની": 4426,
      "માપદ": 4427,
      "નાખો": 4428,
      "દુર્": 4429,
      "કાયદો": 4430,
      "વપરાશકર્તાને": 4431,
      "વિચારસરણી": 4432,
      "ફ્લાઇટ": 4433,
      "પારદર્": 4434,
      "જગ્યાએ": 4435,
      "પ્રદૂષણને": 4436,
      "ઇન્ટરવ્યુ": 4437,
      "ટેક્નોલ": 4438,
      "આનો": 4439,
      "ડબલ": 4440,
      "જાત": 4441,
      "ગોળ": 4442,
      "ઝાં": 4443,
      "પરીક્ષા": 4444,
      "બજારો": 4445,
      "સરખામણી": 4446,
      "હ્યુ": 4447,
      "નાસો": 4448,
      "રેટર": 4449,
      "બોન્ડ": 4450,
      "વર્ષોમાં": 4451,
      "આકર્ષિત": 4452,
      "વિરુ": 4453,
      "વોલ્યુ": 4454,
      "લિં": 4455,
      "નામની": 4456,
      "ચીક": 4457,
      "રમતમાં": 4458,
      "પ્રેક્ષકોને": 4459,
      "સેન્સર": 4460,
      "ફંક્શન": 4461,
      "બ્રિટીશ": 4462,
      "કહી": 4463,
      "ચુ": 4464,
      "જબી": 4465,
      "હાલમાં": 4466,
      "મેન્ટિક": 4467,
      "બ્રેડ": 4468,
      "અમલી": 4469,
      "નંબરો": 4470,
      "હાસ્ય": 4471,
      "વિરુદ્ધ": 4472,
      "સ્કી": 4473,
      "પરત": 4474,
      "લેતા": 4475,
      "લીંબુ": 4476,
      "ખામી": 4477,
      "પેઢી": 4478,
      "વિકસાવો": 4479,
      "ભરેલા": 4480,
      "ઉત્પાદકતા": 4481,
      "પુરસ્કારો": 4482,
      "el": 4483,
      "અપા": 4484,
      "નસ": 4485,
      "ક્લિ": 4486,
      "જેવો": 4487,
      "આપ્યું": 4488,
      "ટાપુ": 4489,
      "શ્લોક": 4490,
      "ધીરે": 4491,
      "સુધારણા": 4492,
      "ખેંચ": 4493,
      "̦̦̦̦": 4494,
      "આફ": 4495,
      "ઓલિ": 4496,
      "ડતા": 4497,
      "સાથેનો": 4498,
      "વવાનો": 4499,
      "બુદ્ધિશાળી": 4500,
      "શિયાળા": 4501,
      "ભૌતિકશાસ્ત્ર": 4502,
      "એકાગ્ર": 4503,
      "ડિવાઇસ": 4504,
      "ધિક": 4505,
      "વાને": 4506,
      "ટેગ": 4507,
      "પ્તિ": 4508,
      "પરિબળ": 4509,
      "મૂડી": 4510,
      "કિનારા": 4511,
      "જોડણી": 4512,
      "ખાનગી": 4513,
      "અમલીકરણ": 4514,
      "વાપરી": 4515,
      "માંગે": 4516,
      "નોને": 4517,
      "પેરા": 4518,
      "સમયગાળા": 4519,
      "માહિતીનો": 4520,
      "બાજુઓ": 4521,
      "કૌશલ્યો": 4522,
      "અવિશ્વસનીય": 4523,
      "રકમ": 4524,
      "પ્રમો": 4525,
      "વિદેશી": 4526,
      "ફિલ": 4527,
      "પગાર": 4528,
      "ડાયનાસો": 4529,
      "પૃથ્વીના": 4530,
      "અણધાર": 4531,
      "ડ્ર": 4532,
      "રનેટ": 4533,
      "માંના": 4534,
      "તાજા": 4535,
      "આપતી": 4536,
      "નિવા": 4537,
      "હીટ": 4538,
      "ફૂલ": 4539,
      "હુમ": 4540,
      "લાગણીઓને": 4541,
      "ચાર્જ": 4542,
      "મેન્યુઅલ": 4543,
      "ટ્ટી": 4544,
      "ધ્રુ": 4545,
      "નનું": 4546,
      "નાબૂ": 4547,
      "કરનારા": 4548,
      "રેટિંગ": 4549,
      "પ્રાણીઓના": 4550,
      "સર્જનાત્મકતા": 4551,
      "સ્ટાર્ટ": 4552,
      "સંકેતો": 4553,
      "કિંમતો": 4554,
      "ap": 4555,
      "om": 4556,
      "td": 4557,
      "ક્લો": 4558,
      "તાહ": 4559,
      "સિસ્ટમનો": 4560,
      "સમજાવે": 4561,
      "બિઝનેસ": 4562,
      "99": 4563,
      "પાછો": 4564,
      "હેરી": 4565,
      "ખોટા": 4566,
      "ઉદ્યોગો": 4567,
      "વર્ગખંડ": 4568,
      "વાઇબ્રે": 4569,
      "છેતરપિ": 4570,
      "મંત": 4571,
      "બેઠ": 4572,
      "દેખરે": 4573,
      "રહેવામાં": 4574,
      "ભાષાની": 4575,
      "લાગ્યું": 4576,
      "સુધારી": 4577,
      "ડ્રેસ": 4578,
      "શહેરો": 4579,
      "દેખરેખ": 4580,
      "જતી": 4581,
      "વાણી": 4582,
      "કરોઃ": 4583,
      "દરખા": 4584,
      "બોડી": 4585,
      "ગેમ્સ": 4586,
      "લાઇબ્રે": 4587,
      "પૃથ્વીની": 4588,
      "અમૂર્ત": 4589,
      "વશે": 4590,
      "સગાઈ": 4591,
      "માંગો": 4592,
      "કાચ": 4593,
      "રિટી": 4594,
      "સામગ્રીની": 4595,
      "વિકસાવવામાં": 4596,
      "જણાવે": 4597,
      "પાર્કમાં": 4598,
      "સ્ક્રીન": 4599,
      "લેન્ડસ્કેપ": 4600,
      "કામદારો": 4601,
      "ંકી": 4602,
      "વુ": 4603,
      "સપ્લાય": 4604,
      "લેટર": 4605,
      "ચોરી": 4606,
      "રાખવાની": 4607,
      "અસરોને": 4608,
      "આબોહવામાં": 4609,
      "સંદર્ભમાં": 4610,
      "ભ્રમણ": 4611,
      "યાળુ": 4612,
      "વાજબી": 4613,
      "ખાઈ": 4614,
      "કાર્યસ્થળમાં": 4615,
      "ચેમ્પિયન": 4616,
      "ધર્મ": 4617,
      "ક્ષર": 4618,
      "જાહેરા": 4619,
      "પીરસો": 4620,
      "ગેસ": 4621,
      "વિશ્વનો": 4622,
      "ગ્રાહકને": 4623,
      "નુભૂતિ": 4624,
      "સિસ્ટમની": 4625,
      "બનેલું": 4626,
      "ess": 4627,
      "રસોઈ": 4628,
      "દાયકામાં": 4629,
      "સહાનુભૂતિ": 4630,
      "મસા": 4631,
      "યન": 4632,
      "સાચી": 4633,
      "ક્ષી": 4634,
      "ણાકાર": 4635,
      "ઉત્તેજ": 4636,
      "સમસ્યાના": 4637,
      "વર્ષે": 4638,
      "ઘટાડવાનો": 4639,
      "વ્યક્તિત્વ": 4640,
      "જાવાસ્ક્રિપ્ટ": 4641,
      "ઉલ્લેખ": 4642,
      "બર્ડ": 4643,
      "નોન": 4644,
      "રોમેન્ટિક": 4645,
      "લીધો": 4646,
      "મૂડ": 4647,
      "કિલો": 4648,
      "પ્રક્રિયાનું": 4649,
      "બુદ્ધિનો": 4650,
      "બનાવીને": 4651,
      "ગ્રેડ": 4652,
      "વાંચન": 4653,
      "રિયાલિટી": 4654,
      "નેવિગેશન": 4655,
      "વર્સ": 4656,
      "પૂન": 4657,
      "પીડા": 4658,
      "કાર્યક્રમ": 4659,
      "જૂના": 4660,
      "એન્જ": 4661,
      "પેટર્નને": 4662,
      "નમૂના": 4663,
      "વૈવિધ્યસભર": 4664,
      "pr": 4665,
      "ઇજને": 4666,
      "નૃ": 4667,
      "માણી": 4668,
      "સંખ્યાઓ": 4669,
      "અનુકૂલન": 4670,
      "જીત્યો": 4671,
      "અસ્વસ્થ": 4672,
      "બનો": 4673,
      "લાસ": 4674,
      "જોડે": 4675,
      "ગ્રાફી": 4676,
      "લિસ્ટ": 4677,
      "પ્રતિભાવ": 4678,
      "શક્યો": 4679,
      "હિસ્": 4680,
      "સ્થિતિમાં": 4681,
      "ટ્રેકિંગ": 4682,
      "પ્લાસ્ટિકના": 4683,
      "એનબીએ": 4684,
      "ધમ": 4685,
      "હૂ": 4686,
      "નોની": 4687,
      "વેચ": 4688,
      "પાઉન્ડ": 4689,
      "બનાવ્યા": 4690,
      "યાદો": 4691,
      "પ્રોફે": 4692,
      "નિર્ભર": 4693,
      "વપરાશકર્તાના": 4694,
      "ભાષાંતર": 4695,
      "આઇસ": 4696,
      "ઇકોસિસ્ટમ્સ": 4697,
      "સુધારેલ": 4698,
      "વિશ્વભરના": 4699,
      "બંધારણ": 4700,
      "જ્યોર્જ": 4701,
      "II": 4702,
      "ટીવી": 4703,
      "શોધવાની": 4704,
      "ગાં": 4705,
      "છાપ": 4706,
      "કાર્યોમાં": 4707,
      "90": 4708,
      "ol": 4709,
      "pl": 4710,
      "ઉભા": 4711,
      "બિક": 4712,
      "સળ": 4713,
      "નાઈટ": 4714,
      "ંધા": 4715,
      "બિલ": 4716,
      "કંપનીની": 4717,
      "દૂરસ્થ": 4718,
      "ખુલ્": 4719,
      "અવાજો": 4720,
      "ort": 4721,
      "અજાણ": 4722,
      "સ્વિ": 4723,
      "સંયુક્ત": 4724,
      "શબ્દને": 4725,
      "માહિતીની": 4726,
      "આઉટડોર": 4727,
      "વેબસાઇટ્સ": 4728,
      "સમુદ્રના": 4729,
      "સ્ટેટ્સના": 4730,
      "વિભાજન": 4731,
      "નીકળી": 4732,
      "સમયમર્યાદા": 4733,
      "શબ્દની": 4734,
      "પાળતુ": 4735,
      "લાઇબ્રેરી": 4736,
      "નૃત્ય": 4737,
      "ઉડા": 4738,
      "બટર": 4739,
      "ોનો": 4740,
      "વાઝો": 4741,
      "ડેસ્ક": 4742,
      "સોર્સ": 4743,
      "સેવાઓની": 4744,
      "ફોર્મેટ": 4745,
      "વિસ્તારમાં": 4746,
      "મહાસાગર": 4747,
      "વાઇબ્રેન્ટ": 4748,
      "દરખાસ્ત": 4749,
      "જાહેરાતો": 4750,
      "ફ્ર": 4751,
      "ફ્રો": 4752,
      "ળમાં": 4753,
      "વસન": 4754,
      "વિમાન": 4755,
      "સુવ્યવસ્થિત": 4756,
      "સર્વિસ": 4757,
      "ગુણો": 4758,
      "પ્રવૃત્તિઓમાં": 4759,
      "અંતર્": 4760,
      "લવચીક": 4761,
      "કણ": 4762,
      "ટને": 4763,
      "માધ્ય": 4764,
      "વાવાઝો": 4765,
      "હેલો": 4766,
      "ચાલવા": 4767,
      "જીવનનો": 4768,
      "બાળક": 4769,
      "અદભૂત": 4770,
      "ધિકૃત": 4771,
      "સ્પૂન": 4772,
      "વિતર": 4773,
      "રંગના": 4774,
      "ભરતી": 4775,
      "જાણવા": 4776,
      "ચૂકવણી": 4777,
      "નફા": 4778,
      "મીઠી": 4779,
      "મિકે": 4780,
      "ર્સને": 4781,
      "ઘટક": 4782,
      "વિનાશ": 4783,
      "પડકારોનો": 4784,
      "દરવાજા": 4785,
      "માતાપિતા": 4786,
      "ભેદભાવ": 4787,
      "ઓડિયો": 4788,
      "મેગ્": 4789,
      "સીધા": 4790,
      "સંબંધોને": 4791,
      "વર્ષના": 4792,
      "પર્વતો": 4793,
      "શેડ્યૂ": 4794,
      ");": 4795,
      "બારી": 4796,
      "િપ્રયોગ": 4797,
      "કરનાર": 4798,
      "તાજ": 4799,
      "વેન્": 4800,
      "ફોન્ટ": 4801,
      "ગુના": 4802,
      "લખાણને": 4803,
      "લૂપ": 4804,
      "તેટલી": 4805,
      "70": 4806,
      "ex": 4807,
      "કશું": 4808,
      "નાક": 4809,
      "વાક્યની": 4810,
      "લાઇફ": 4811,
      "વળવા": 4812,
      "tion": 4813,
      "અમેરિકાના": 4814,
      "વિતરિત": 4815,
      "કયું": 4816,
      "લેવું": 4817,
      "દાંત": 4818,
      "ચાલે": 4819,
      "સિસ્ટમને": 4820,
      "લગતા": 4821,
      "એજન્ટ": 4822,
      "તંગ": 4823,
      "પ્રકારો": 4824,
      "પૂછવા": 4825,
      "ઈન્ટરનેટ": 4826,
      "80": 4827,
      "મેક્સિ": 4828,
      "આપેલી": 4829,
      "ગેરફાયદા": 4830,
      "ઇમ": 4831,
      "હાર્": 4832,
      "વાચ": 4833,
      "સાંક": 4834,
      "લીલો": 4835,
      "ક્રૂ": 4836,
      "અનંત": 4837,
      "જનરેટ": 4838,
      "વળતર": 4839,
      "ઉકેલી": 4840,
      "અમલમાં": 4841,
      "ઇતિહાસમાં": 4842,
      "દર્દીના": 4843,
      "દસ": 4844,
      "નકલ": 4845,
      "મફ": 4846,
      "ઉત્ક્રાંતિ": 4847,
      "નામું": 4848,
      "હતાશા": 4849,
      "ઘટકોની": 4850,
      "બળતણ": 4851,
      "ઠે": 4852,
      "પોઝિ": 4853,
      "ગુણાકાર": 4854,
      "વાંચો": 4855,
      "ફિલ્મો": 4856,
      "ડ્રેગન": 4857,
      "પુનરાવર્તન": 4858,
      "અરજી": 4859,
      "છાયા": 4860,
      "તળ": 4861,
      "ફળતા": 4862,
      "માખી": 4863,
      "વાળું": 4864,
      "ારા": 4865,
      "વિષ્ટ": 4866,
      "તાકાત": 4867,
      "કાલિક": 4868,
      "પ્લો": 4869,
      "સોને": 4870,
      "સમાવિષ્ટ": 4871,
      "તકનીકનો": 4872,
      "એસએસ": 4873,
      "બન્યું": 4874,
      "નિષ્ફળતા": 4875,
      "સ્માર્ટફોન": 4876,
      "ઊંચું": 4877,
      "જણ": 4878,
      "લંડ": 4879,
      "સૃ": 4880,
      "કેલ્": 4881,
      "વિજય": 4882,
      "તાત્": 4883,
      "કોર્સ": 4884,
      "રોલ": 4885,
      "ભૂલી": 4886,
      "સાહજિક": 4887,
      "પદ્ધતિઓનો": 4888,
      "શરીરને": 4889,
      "લક્ષ્યોને": 4890,
      "બાબત": 4891,
      "ઉનાળાના": 4892,
      "તાત્કાલિક": 4893,
      "આપવો": 4894,
      "સમૂ": 4895,
      "પોલિ": 4896,
      "બોટ્સ": 4897,
      "યુઝર": 4898,
      "જુએ": 4899,
      "વિશ્વભરમાં": 4900,
      "સ્વપ્ન": 4901,
      "પિકનિક": 4902,
      "id": 4903,
      "અસ્પષ્ટ": 4904,
      "આશ્ર": 4905,
      "લક્ષિત": 4906,
      "સન્": 4907,
      "તાઓને": 4908,
      "શેકેલા": 4909,
      "કંપનીઓને": 4910,
      "ઉપકરણોને": 4911,
      "એટલા": 4912,
      "નિષ્ફળ": 4913,
      "પ્રોજેક્ટ્સ": 4914,
      "ભજવે": 4915,
      "સિંહ": 4916,
      "એચટીએમએલ": 4917,
      "તાથી": 4918,
      "મેદાન": 4919,
      "ડેટાસેટ્સ": 4920,
      "વર્ષમાં": 4921,
      "દેશોને": 4922,
      "પ્લાન્ટ": 4923,
      "લંબાઇ": 4924,
      "અગ્રણી": 4925,
      "ગોલ્ડન": 4926,
      "મફત": 4927,
      "23": 4928,
      "આને": 4929,
      "પશ્": 4930,
      "વિન": 4931,
      "સંભ": 4932,
      "ત્વો": 4933,
      "િંગ્સ": 4934,
      "હાનિ": 4935,
      "પીળો": 4936,
      "2021": 4937,
      "કોષો": 4938,
      "ઠંડુ": 4939,
      "બદામ": 4940,
      "ame": 4941,
      "ming": 4942,
      "ઓપન": 4943,
      "સ્મિત": 4944,
      "પોટર": 4945,
      "પરિણામોની": 4946,
      "હેતુઓ": 4947,
      "પશ્ચિ": 4948,
      "અનિશ્ચિત": 4949,
      "ઇમાર": 4950,
      "લગ્ન": 4951,
      "જેનું": 4952,
      "કાયમી": 4953,
      "વર્ણનાત્મક": 4954,
      "હિલ": 4955,
      "વિકાસમાં": 4956,
      "સૂર્યા": 4957,
      "તત્ત્વો": 4958,
      "સિંગલ": 4959,
      "પાથ": 4960,
      "સ્તરે": 4961,
      "શિપ": 4962,
      "માર્ક": 4963,
      "પ્રોત્સાહનો": 4964,
      "જાણકાર": 4965,
      "બનાવશે": 4966,
      "લાઇટ્સ": 4967,
      "ફ્રાન્સિ": 4968,
      "સભ્ય": 4969,
      "કસ્ટમાઇઝ": 4970,
      "વિતરણ": 4971,
      "ભારી": 4972,
      "ભાષાઓ": 4973,
      "ધરાવતી": 4974,
      "બનવાની": 4975,
      "મોડેલની": 4976,
      "વ્યાપકપણે": 4977,
      "સૂર્યાસ્ત": 4978,
      "અબજ": 4979,
      "રશી": 4980,
      "માફી": 4981,
      "વ્યક્તિએ": 4982,
      "આપવાનો": 4983,
      "ઓર્ગે": 4984,
      "અત્ય": 4985,
      "આવવા": 4986,
      "વચન": 4987,
      "કોલી": 4988,
      "યોગદાન": 4989,
      "સરકારી": 4990,
      "બ્લુ": 4991,
      "સોલ્યુશન": 4992,
      "ફેશન": 4993,
      "ષ્ઠા": 4994,
      "મોડેલનો": 4995,
      "જાળવવામાં": 4996,
      "પાયેલા": 4997,
      "મૂવીઝ": 4998,
      "છેતરપિંડી": 4999,
      "અત્યંત": 5000,
      "ચલો": 5001,
      "િકા": 5002,
      "વાળ": 5003,
      "ક્લી": 5004,
      "ાયી": 5005,
      "જીવી": 5006,
      "શોષ": 5007,
      "પુરુ": 5008,
      "રિટેલ": 5009,
      "જૂની": 5010,
      "લેખમાં": 5011,
      "બનેલી": 5012,
      "ફ્રેન્ડ": 5013,
      "જન્મ": 5014,
      "પુરુષ": 5015,
      "અત્યાર": 5016,
      "પઝ": 5017,
      "રનું": 5018,
      "હવાની": 5019,
      "શ્વસન": 5020,
      "મીઠા": 5021,
      "કાર્યને": 5022,
      "માહિતગાર": 5023,
      "મળશે": 5024,
      "ઇમેજ": 5025,
      "સમીક્ષાઓ": 5026,
      "દાખલાઓ": 5027,
      "અહેવાલ": 5028,
      "આટ": 5029,
      "લક": 5030,
      "નીઝ": 5031,
      "કેપ્": 5032,
      "ક્ટે": 5033,
      "રીઝ": 5034,
      "લાઈ": 5035,
      "કોનો": 5036,
      "લીઓ": 5037,
      "કિશો": 5038,
      "ઉદાસી": 5039,
      "રાજકુ": 5040,
      "વિનાશક": 5041,
      "પ્રશ્નોની": 5042,
      "ભેગા": 5043,
      "વ્હે": 5044,
      "28": 5045,
      "હાજર": 5046,
      "દુખા": 5047,
      "વસ્તુઓને": 5048,
      "ફેરવો": 5049,
      "લુપ્ત": 5050,
      "ચકિત": 5051,
      "ઝમ": 5052,
      "ભયા": 5053,
      "નારી": 5054,
      "સમજૂ": 5055,
      "શાસ": 5056,
      "વિશ્લે": 5057,
      "ક્ષિતિ": 5058,
      "પરિવર્તનને": 5059,
      "ખુરશી": 5060,
      "ચુંબ": 5061,
      "ડિસ્પ્લે": 5062,
      "વ્યાકરણની": 5063,
      "અવતરણ": 5064,
      "સમજૂતી": 5065,
      ":-": 5066,
      "con": 5067,
      "ir": 5068,
      "ચ્યુ": 5069,
      "ઢા": 5070,
      "તટ": 5071,
      "થતાં": 5072,
      "દળો": 5073,
      "સ્થળા": 5074,
      "ગાળ": 5075,
      "ક્રિયાઓ": 5076,
      "ભાષાનો": 5077,
      "ખર્ચને": 5078,
      "શિક્ષણમાં": 5079,
      "પાર્ટ": 5080,
      "નવીનતા": 5081,
      "મહત્ત્વનું": 5082,
      "અર્": 5083,
      "ઓલ": 5084,
      "જોવામાં": 5085,
      "જીતી": 5086,
      "રૂઢ": 5087,
      "બ્લો": 5088,
      "વાતાવરણને": 5089,
      "પુનર્": 5090,
      "સોંપણી": 5091,
      "આફ્રિક": 5092,
      "સમૂહો": 5093,
      "અસમર્થ": 5094,
      "પર્સ": 5095,
      "ટેક્સ": 5096,
      "પોષણ": 5097,
      "શોધવાનું": 5098,
      "સ્ટોર્સ": 5099,
      "લેખનો": 5100,
      "ખર્ચની": 5101,
      "ધોવા": 5102,
      "ડાયા": 5103,
      "ક્રોસ": 5104,
      "સેલ્સિયસ": 5105,
      "પ્પણી": 5106,
      "પરિણ": 5107,
      "દુષ્": 5108,
      "એનએન": 5109,
      "કેન્સર": 5110,
      "જોખમમાં": 5111,
      "તરંગો": 5112,
      "મધમાખી": 5113,
      "વિડિઓઝ": 5114,
      "ઇઓ": 5115,
      "એથ": 5116,
      "ષિક": 5117,
      "વોશિંગ": 5118,
      "શોખ": 5119,
      "ફરિયા": 5120,
      "ટિપ્પણી": 5121,
      "વિચારી": 5122,
      "રેકોર્ડ્સ": 5123,
      "રાત્રિભોજન": 5124,
      "અજમા": 5125,
      "સૈ": 5126,
      "હિક": 5127,
      "નાટ": 5128,
      "નાટક": 5129,
      "રાઇડ": 5130,
      "સૂપ": 5131,
      "સમયને": 5132,
      "વાક્યના": 5133,
      "રહેતો": 5134,
      "ભાષામાં": 5135,
      "વેબસાઇટની": 5136,
      "દેશોની": 5137,
      "ભેટ": 5138,
      "ટાઇપ": 5139,
      "ગાળાની": 5140,
      "જમાનામાં": 5141,
      "ફર્નિ": 5142,
      "નહોતી": 5143,
      "હૂંફા": 5144,
      "સેન્ડવિચ": 5145,
      "ct": 5146,
      "ow": 5147,
      "ઉજા": 5148,
      "નવ": 5149,
      "પૌ": 5150,
      "ફ્યુ": 5151,
      "વેની": 5152,
      "ભાવનાને": 5153,
      "જોડાણો": 5154,
      "વાહન": 5155,
      "બર્ગ": 5156,
      "આફ્રિકન": 5157,
      "ટર્": 5158,
      "કર્સ": 5159,
      "પ્રસાર": 5160,
      "સાસ": 5161,
      "કોરોના": 5162,
      "કરેલ": 5163,
      "ગ્રાઉન્ડ": 5164,
      "સૂચિત": 5165,
      "સંખ્યાને": 5166,
      "હંમેશા": 5167,
      "પૂરતા": 5168,
      "સ્થિરતા": 5169,
      "શહેરી": 5170,
      "નિરાશા": 5171,
      "ઈનપુટ": 5172,
      "ણકટિ": 5173,
      "ઉષ્ણકટિ": 5174,
      "ઓલિમ્પ": 5175,
      "ફર્નિચર": 5176,
      "લાવવાની": 5177,
      "રૂમ": 5178,
      "હાલની": 5179,
      "ગેટ્સ": 5180,
      "વિકાસકર્તા": 5181,
      "નાગરિકો": 5182,
      "સ્થળાંતર": 5183,
      "em": 5184,
      "આભારી": 5185,
      "કબ": 5186,
      "હર": 5187,
      "ટાવર": 5188,
      "સ્ટન": 5189,
      "થવાનું": 5190,
      "ડિનર": 5191,
      "મદદથી": 5192,
      "જેમ્સ": 5193,
      "અર્થવ્યવસ્થા": 5194,
      "સહભાગી": 5195,
      "અભિગ": 5196,
      "મુદ્દાઓને": 5197,
      "વિરોધ": 5198,
      "દ્રષ્ટિકોણ": 5199,
      "વફાદાર": 5200,
      "શૂન્ય": 5201,
      "પંક્તિ": 5202,
      "શંકાસ્પદ": 5203,
      "બિલ્ડિંગ": 5204,
      "તટસ્થ": 5205,
      "ટાર": 5206,
      "સામૂ": 5207,
      "રેતી": 5208,
      "રહેતી": 5209,
      "અસરને": 5210,
      "વર્ષની": 5211,
      "ધોરણ": 5212,
      "ટ્રાન્": 5213,
      "શરૂઆતમાં": 5214,
      "પાછલા": 5215,
      "એન્જિનિયર": 5216,
      "કન્ટેનર": 5217,
      "સ્ટેટમેન્ટ": 5218,
      "તૂટી": 5219,
      "સામૂહિક": 5220,
      "2x": 5221,
      "ડબ્": 5222,
      "થતો": 5223,
      "વતું": 5224,
      "ટાઇટ": 5225,
      "બેડ": 5226,
      "મેળવવાની": 5227,
      "2019": 5228,
      "સારાહ": 5229,
      "પ્રગતિને": 5230,
      "આશ્ચર્યચકિત": 5231,
      "કેમ્પિંગ": 5232,
      "ટેક્નોલૉ": 5233,
      "48": 5234,
      "oo": 5235,
      "sh": 5236,
      "જમ": 5237,
      "ધપા": 5238,
      "બ્યુ": 5239,
      "સ્નો": 5240,
      "પ્રગ": 5241,
      "મેસે": 5242,
      "માઇન્ડફુ": 5243,
      "બંધીય": 5244,
      "ઉષ્ણકટિબંધીય": 5245,
      "ખનિ": 5246,
      "મું": 5247,
      "ડેડ": 5248,
      "દીધી": 5249,
      "સીધી": 5250,
      "પાણીમાં": 5251,
      "ઉત્પાદનના": 5252,
      "ફ્લાય": 5253,
      "વાયર": 5254,
      "સુધારેલી": 5255,
      "સમર્પિત": 5256,
      "કોર્પો": 5257,
      "ધમકી": 5258,
      "HT": 5259,
      "ઇન્ડ": 5260,
      "૧૯": 5261,
      "ક્તા": 5262,
      "રીગ્રે": 5263,
      "કાલ": 5264,
      "દીઠ": 5265,
      "સમયના": 5266,
      "વિશ્વનું": 5267,
      "કાર્ડ્સ": 5268,
      "જંગલ": 5269,
      "ક્લસ્ટ": 5270,
      "છુપાયેલા": 5271,
      "32": 5272,
      "ઝૂ": 5273,
      "હસ": 5274,
      "નામો": 5275,
      "કાતો": 5276,
      "ટાળો": 5277,
      "ડીએનએ": 5278,
      "મતદાન": 5279,
      "થાક": 5280,
      "શિક્ષણના": 5281,
      "લાઇસ": 5282,
      "મૂકવામાં": 5283,
      "ટ્વિ": 5284,
      "ચહેરાના": 5285,
      "મોટાભાગના": 5286,
      "મકા": 5287,
      "રમાં": 5288,
      "શર્ટ": 5289,
      "્ટન": 5290,
      "ઊર્જાની": 5291,
      "સામગ્રીનો": 5292,
      "શિયાળ": 5293,
      "રાંધો": 5294,
      "નેટવર્કનો": 5295,
      "એવોર્ડ": 5296,
      "દુષ્કાળ": 5297,
      "ચાં": 5298,
      "શબ્દસમૂહો": 5299,
      "લેવાનો": 5300,
      "શહેરના": 5301,
      "યોજનામાં": 5302,
      "પરિણામોને": 5303,
      "રાંધવા": 5304,
      "સ્ટાફ": 5305,
      "સ્ટ્રોબેરી": 5306,
      "નબળી": 5307,
      "ઉજાગર": 5308,
      "ab": 5309,
      "ઔપચારિક": 5310,
      "ભરો": 5311,
      "ક્લિક": 5312,
      "કાપી": 5313,
      "ગોળા": 5314,
      "કિટ": 5315,
      "ઘરના": 5316,
      "ate": 5317,
      "સવારી": 5318,
      "જોડાયે": 5319,
      "એસિડ": 5320,
      "box": 5321,
      "પ્રોસેસર": 5322,
      "કૉ": 5323,
      "કરવેરા": 5324,
      "ટેશન": 5325,
      "તકનીકીનો": 5326,
      "અવકાશયા": 5327,
      "આનાથી": 5328,
      "કોરોનાવાયરસ": 5329,
      "65": 5330,
      "ત્રિક": 5331,
      "ગામ": 5332,
      "મહત્વનું": 5333,
      "થોડું": 5334,
      "કાર્બો": 5335,
      "એન્ક્રિપ્શન": 5336,
      "સ્વાગત": 5337,
      "ઘરમાં": 5338,
      "ation": 5339,
      "ul": 5340,
      "ઘણું": 5341,
      "લેયર": 5342,
      "ડાને": 5343,
      "નામનો": 5344,
      "કામના": 5345,
      "સામ્રા": 5346,
      "બિનસલાહ": 5347,
      "નિવારણ": 5348,
      "સંયો": 5349,
      "વીય": 5350,
      "ઉપયોગના": 5351,
      "પરિવા": 5352,
      "રહેલી": 5353,
      "ઉત્પાદનને": 5354,
      "ઊંચી": 5355,
      "વિટામિન": 5356,
      "29": 5357,
      "ઊભી": 5358,
      "િન": 5359,
      "જેન": 5360,
      "દોડી": 5361,
      "સૂર્યની": 5362,
      "લખાણમાં": 5363,
      "પ્રોટોકોલ": 5364,
      "ભળી": 5365,
      "વિભાગ": 5366,
      "સાઇ": 5367,
      "લોકન": 5368,
      "પ્રશ્નનો": 5369,
      "ભૂતપૂર્વ": 5370,
      "સ્તરમાં": 5371,
      "બનેલા": 5372,
      "ઉત્પાદનોની": 5373,
      "ઠોકર": 5374,
      "માત્રાને": 5375,
      "મોટેથી": 5376,
      "ધ્વનિ": 5377,
      "મળતા": 5378,
      "હક": 5379,
      "હોવાનું": 5380,
      "હોવાનો": 5381,
      "પેટા": 5382,
      "બોલ્ડ": 5383,
      "આપવાનું": 5384,
      "વાંચવા": 5385,
      "બદલવા": 5386,
      "વધેલી": 5387,
      "બટાકા": 5388,
      "દુખાવો": 5389,
      "ag": 5390,
      "એરો": 5391,
      "પ્રવા": 5392,
      "કાપ": 5393,
      "મીણ": 5394,
      "અનુસર": 5395,
      "કાર્યવાહી": 5396,
      "સમજાવટ": 5397,
      "હિમાય": 5398,
      "tim": 5399,
      "રસ્તામાં": 5400,
      "પુરવઠો": 5401,
      "તર્ક": 5402,
      "શ્રી": 5403,
      "સજ્જ": 5404,
      "માનો": 5405,
      "શાસન": 5406,
      "સૂચનો": 5407,
      "ફેરનહિ": 5408,
      "ભવિષ્યની": 5409,
      "our": 5410,
      "ઉત્તેજના": 5411,
      "ખમ": 5412,
      "થર": 5413,
      "પ્યુ": 5414,
      "સાહી": 5415,
      "વ્યૂ": 5416,
      "પૂંછ": 5417,
      "ઉત્સાહી": 5418,
      "ફિન": 5419,
      "માંગતા": 5420,
      "મેનેજર": 5421,
      "ભંગ": 5422,
      "સાચો": 5423,
      "વોટર": 5424,
      "બેક્ટે": 5425,
      "ઊંડી": 5426,
      "પકડ": 5427,
      "ટેલિવિઝન": 5428,
      "પ્લેટફોર્": 5429,
      "પ્રવૃત્તિઓની": 5430,
      "કામગીરીને": 5431,
      "ટોચની": 5432,
      "ઉત્પાદકતામાં": 5433,
      "દરવાજો": 5434,
      "સપ્તાહ": 5435,
      "22": 5436,
      "બસ": 5437,
      "લાઈન": 5438,
      "કારને": 5439,
      "પાયે": 5440,
      "લેટ્સ": 5441,
      "પરિચિત": 5442,
      "મદિ": 5443,
      "ઓળખાય": 5444,
      "ફ્લિ": 5445,
      "ફૂટપ્રિન્ટ": 5446,
      "મહાસાગ": 5447,
      "આશ્રય": 5448,
      "ચટણી": 5449,
      "લઘુ": 5450,
      "પેક": 5451,
      "ગીતો": 5452,
      "ચ્છે": 5453,
      "ફોરેસ્ટ": 5454,
      "નિયમન": 5455,
      "ફિટ": 5456,
      "રંગની": 5457,
      "રોબોટિક": 5458,
      "ફ્રેમ": 5459,
      "જન્મદિ": 5460,
      "વર્ષોથી": 5461,
      "કેપ્ચર": 5462,
      "નસી": 5463,
      "નાન્સ": 5464,
      "સરનામું": 5465,
      "પ્રાપ્તિ": 5466,
      "રહેવાનું": 5467,
      "સંસાધનોનો": 5468,
      "રાતના": 5469,
      "અંતમાં": 5470,
      "શરીરના": 5471,
      "લખવા": 5472,
      "સ્વાસ્થ્યને": 5473,
      "ઓટોમે": 5474,
      "ઇટાલિયન": 5475,
      "ચીજવસ્તુઓ": 5476,
      "ચપળ": 5477,
      "આમંત્રણ": 5478,
      "ડાયાબિ": 5479,
      "++": 5480,
      "ઇંગ": 5481,
      "ઘડિયા": 5482,
      "કાળો": 5483,
      "લેઆઉટ": 5484,
      "મ્બલ": 5485,
      "ફિક્સ": 5486,
      "વિચારણા": 5487,
      "ન્યુરો": 5488,
      "શિક્ષણની": 5489,
      "ભેચ્છા": 5490,
      "arr": 5491,
      "શુભેચ્છા": 5492,
      "શરતો": 5493,
      "ટેક્નોલૉજી": 5494,
      "આર્ક": 5495,
      "ઇન્સ": 5496,
      "દવાર": 5497,
      "સફાઈ": 5498,
      "તેમાંથી": 5499,
      "સ્ડ": 5500,
      "વિન્": 5501,
      "મેડી": 5502,
      "જાણો": 5503,
      "ધીમી": 5504,
      "પ્રકારને": 5505,
      "ઉમેદવાર": 5506,
      "લક્ષ્યાં": 5507,
      "યેલું": 5508,
      "સ્તરની": 5509,
      "પાંખો": 5510,
      "ચેટબોટ્સ": 5511,
      "સંગઠિત": 5512,
      "ઇન્ટરવ્યૂ": 5513,
      "ભરાઈ": 5514,
      "અસમાનતા": 5515,
      "ઈલ": 5516,
      "ગમત": 5517,
      "દહીં": 5518,
      "બગાડ": 5519,
      "સ્વિચ": 5520,
      "રાણ": 5521,
      "બનાવ્યો": 5522,
      "સીએ": 5523,
      "સેવાના": 5524,
      "પ્રદૂષ": 5525,
      "મુલાકાતી": 5526,
      "રોમાંચક": 5527,
      "સમાજમાં": 5528,
      "થર્મો": 5529,
      "લોને": 5530,
      "ચેતી": 5531,
      "મિડ": 5532,
      "થઈને": 5533,
      "કાયમ": 5534,
      "સાયકલ": 5535,
      "સમસ્યાઓના": 5536,
      "વાયેલા": 5537,
      "ગઈકાલે": 5538,
      "ઇમેઇલ્સ": 5539,
      "ચકાસણી": 5540,
      "બિનસલાહભર્યા": 5541,
      "ડાયાબિટી": 5542,
      "બગ": 5543,
      "ચોખા": 5544,
      "ખુશી": 5545,
      "મૂકવા": 5546,
      "ઇલેક્ટ્રોનિક્સ": 5547,
      "સંકેત": 5548,
      "હાઇડ્રોજન": 5549,
      "વાગ્યે": 5550,
      "di": 5551,
      "અગ્નિ": 5552,
      "ફંડ": 5553,
      "એકમાત્ર": 5554,
      "કાયદે": 5555,
      "ઘટકોમાં": 5556,
      "વિચારોની": 5557,
      "સપના": 5558,
      "નેવિગેટ": 5559,
      "Ap": 5560,
      "GP": 5561,
      "આદાન": 5562,
      "રીફ": 5563,
      "ખોલી": 5564,
      "સોડા": 5565,
      "મિટ": 5566,
      "બિલીટી": 5567,
      "પડતા": 5568,
      "કમ્પ્યુટરને": 5569,
      "તત્વોને": 5570,
      "જેટલું": 5571,
      "બદલાઈ": 5572,
      "માળખાગત": 5573,
      "રોજગાર": 5574,
      "આગેવાન": 5575,
      "કાયદેસર": 5576,
      "35": 5577,
      "ભિ": 5578,
      "રજા": 5579,
      "રહ્યાં": 5580,
      "ફરજ": 5581,
      "સૌરમંડ": 5582,
      "ફાઇનાન્સ": 5583,
      "સોંપ": 5584,
      "બેંકિંગ": 5585,
      "સંકલન": 5586,
      "એકીકૃત": 5587,
      "આસિસ્ટ": 5588,
      "વસા": 5589,
      "નાશ": 5590,
      "સાબિત": 5591,
      "મેક": 5592,
      "મોં": 5593,
      "શીપ": 5594,
      "જ્વાળા": 5595,
      "કાર્યોની": 5596,
      "પરિસ્થિતિનું": 5597,
      "પહોંચાડે": 5598,
      "વગેરેનો": 5599,
      "સાવચેતી": 5600,
      "ટેવ": 5601,
      "સાદી": 5602,
      "વધારી": 5603,
      "લીલી": 5604,
      "યોજનાઓ": 5605,
      "રમતગમત": 5606,
      "જરૂરિયાતને": 5607,
      "વળગી": 5608,
      "સંસ્કરણ": 5609,
      "બેકઅપ": 5610,
      "હાયપર": 5611,
      "બાઇક": 5612,
      "હેઠળ": 5613,
      "એપ": 5614,
      "ક્કર": 5615,
      "ક્કો": 5616,
      "પાયો": 5617,
      "સમયનો": 5618,
      "લાગ્યો": 5619,
      "ટકાઉપ": 5620,
      "વિસ્તરણ": 5621,
      "પિઝા": 5622,
      "અભ્યાસક્રમો": 5623,
      "પ્રમાણભૂત": 5624,
      "કૂતરાઓ": 5625,
      "મંગળ": 5626,
      "સ્થાનાંતરિત": 5627,
      "એથિકલ": 5628,
      "નલ": 5629,
      "મજૂ": 5630,
      "રમૂ": 5631,
      "કોય": 5632,
      "પર્ય": 5633,
      "કારના": 5634,
      "પરિપ્રેક્ષ": 5635,
      "લિંક": 5636,
      "સોસ": 5637,
      "દિવાલો": 5638,
      "એસક્યુ": 5639,
      "ખોરાકના": 5640,
      "પડકારજનક": 5641,
      "એન્જલસ": 5642,
      "ઓમાંથી": 5643,
      "ઝિંગ": 5644,
      "લશ્": 5645,
      "પ્રભાવો": 5646,
      "જોવાની": 5647,
      "ભાગોમાં": 5648,
      "સેન્ટિ": 5649,
      "પેસિ": 5650,
      "સમયપત્ર": 5651,
      "સહન": 5652,
      "ન્યુક્લ": 5653,
      "બ્રાઝિ": 5654,
      "અસ્તિત્વમાં": 5655,
      "પેરિસ": 5656,
      "ml": 5657,
      "ંકો": 5658,
      "લાકી": 5659,
      "સંમત": 5660,
      "લેન્સ": 5661,
      "ફોર": 5662,
      "માહિતીના": 5663,
      "196": 5664,
      "ખેતી": 5665,
      "ઉત્સર્જનમાં": 5666,
      "બ્રશ": 5667,
      "સપાટીમાં": 5668,
      "ઉમેરવા": 5669,
      "છૂટ": 5670,
      "હાનિકારક": 5671,
      "રૂઢિપ્રયોગ": 5672,
      "સત્ય": 5673,
      "ચેતા": 5674,
      "ચાલાકી": 5675,
      "ધાતુ": 5676,
      "કૂદ": 5677,
      "ગુણવત્તામાં": 5678,
      "સામ્રાજ્ય": 5679,
      "ધુ": 5680,
      "પાર્": 5681,
      "રમક": 5682,
      "રીમાઇન્ડ": 5683,
      "લેશે": 5684,
      "વૃત્તિ": 5685,
      "દૃશ્યો": 5686,
      "આઇઓ": 5687,
      "વહન": 5688,
      "ખરીદીની": 5689,
      "કિરણોત્સર્ગ": 5690,
      "ith": 5691,
      "ઓસ્ટ્રે": 5692,
      "જ્યા": 5693,
      "પરો": 5694,
      "જાપાન": 5695,
      "કીવર્ડ્સ": 5696,
      "બોધ": 5697,
      "કૃષ્ટ": 5698,
      "સ્ટોક": 5699,
      "વેબસાઇટને": 5700,
      "વિભાજીત": 5701,
      "પવનની": 5702,
      "શિક્ષકો": 5703,
      "સ્ટ્રીમિંગ": 5704,
      "ધૂમ્ર": 5705,
      "હૂંફ": 5706,
      "સમર્પણ": 5707,
      "હેન્ડલ": 5708,
      "કક્ષ": 5709,
      "ખિ": 5710,
      "રત": 5711,
      "ડીપી": 5712,
      "ડિશ": 5713,
      "ઉત્કૃષ્ટ": 5714,
      "પ્રોફાઇલ": 5715,
      "કંટા": 5716,
      "ત્રિજ્યા": 5717,
      "ફાયદાઓની": 5718,
      "વિધાન": 5719,
      "તકનીકીના": 5720,
      "જાણતો": 5721,
      "નોકરીઓ": 5722,
      "સમુદ્રની": 5723,
      "બિનજરૂરી": 5724,
      "દરિયાકાં": 5725,
      "શહેરોમાં": 5726,
      "મસાલા": 5727,
      "અયોગ્ય": 5728,
      "તોડી": 5729,
      "મોટ": 5730,
      "ફિકેશન": 5731,
      "કિંગડ": 5732,
      "નેટવર્કિંગ": 5733,
      "દર્શાવવા": 5734,
      "નાબૂદી": 5735,
      "અંતર્ગત": 5736,
      "વ્હેલ": 5737,
      "ખનિજો": 5738,
      "be": 5739,
      "ઇજિ": 5740,
      "ઓપ્ટિમાઇઝેશન": 5741,
      "ડિંગ": 5742,
      "હોલ": 5743,
      "ડેટાબે": 5744,
      "શોધવાનો": 5745,
      "પીરસ": 5746,
      "mo": 5747,
      "ભું": 5748,
      "રમી": 5749,
      "ચેપ": 5750,
      "શોષણ": 5751,
      "ગોલિક": 5752,
      "મિલી": 5753,
      "અનુભૂતિ": 5754,
      "દિવસના": 5755,
      "ભૌગોલિક": 5756,
      "પ્રભાવને": 5757,
      "ભારતના": 5758,
      "જન્સી": 5759,
      "લિંક્સ": 5760,
      "અણધારી": 5761,
      "ફ્રાન્સિસ્કો": 5762,
      "33": 5763,
      "તની": 5764,
      "ફસા": 5765,
      "વાટા": 5766,
      "કાર્ટ": 5767,
      "રોલિંગ": 5768,
      "રેસ": 5769,
      "સાથેનું": 5770,
      "સીડી": 5771,
      "ઉત્પાદનમાં": 5772,
      "ફિઝિ": 5773,
      "અનુભવે": 5774,
      "સંખ્યાઓની": 5775,
      "હાઇડ્રે": 5776,
      "દિશામાં": 5777,
      "ભયાનક": 5778,
      "આદાનપ્રદાન": 5779,
      "ts": 5780,
      "માઉન્ટ": 5781,
      "ન્ટા": 5782,
      "મૂળા": 5783,
      "વાર્ય": 5784,
      "ટેકનોલોજીએ": 5785,
      "બાજુની": 5786,
      "સાથીદારો": 5787,
      "કૌશલ્ય": 5788,
      "અનિવાર્ય": 5789,
      "વાટાઘા": 5790,
      "માલિ": 5791,
      "વાટી": 5792,
      "એકલા": 5793,
      "લેથી": 5794,
      "હોત": 5795,
      "હેશ": 5796,
      "ઉપયોગની": 5797,
      "પીળા": 5798,
      "ગેમિંગ": 5799,
      "પ્રેસ": 5800,
      "સેવાને": 5801,
      "મેળે": 5802,
      "ઉદય": 5803,
      "સ્કેલે": 5804,
      "સ્પામ": 5805,
      "ઓનલાઈન": 5806,
      "રન": 5807,
      "સોકર": 5808,
      "તુલ": 5809,
      "ફરવા": 5810,
      "ઓફરઓફર": 5811,
      "સંસાધનોને": 5812,
      "છોડના": 5813,
      "સ્પર્શ": 5814,
      "સદીમાં": 5815,
      "ભાગીદારી": 5816,
      "સ્થળોએ": 5817,
      "પાનખર": 5818,
      "GPT": 5819,
      "ઇજિપ્ત": 5820,
      "ઇમિ": 5821,
      "રર": 5822,
      "સ્પો": 5823,
      "બીમારી": 5824,
      "ટોસ્ટ": 5825,
      "બિગ": 5826,
      "દિવાલ": 5827,
      "બધાને": 5828,
      "બાજુએ": 5829,
      "રોકાણકારો": 5830,
      "માંગતો": 5831,
      "ભૂલોને": 5832,
      "ભૂતકાળના": 5833,
      "મેક્સિકો": 5834,
      "વેનીલા": 5835,
      "એક્ટ": 5836,
      "કસ્": 5837,
      "પારી": 5838,
      "કેવું": 5839,
      "વેસ્ટ": 5840,
      "ટાળવા": 5841,
      "સેવાની": 5842,
      "પેજ": 5843,
      "ટૂથ": 5844,
      "આનંદથી": 5845,
      "રોકાણો": 5846,
      "પક્ષો": 5847,
      "ફ્રાસ્ટ્રક્ચર": 5848,
      "વ્હા": 5849,
      "થિયરી": 5850,
      "ચારો": 5851,
      "હજ": 5852,
      "રાઇટ": 5853,
      "જાજર": 5854,
      "જોગ": 5855,
      "ઊર્જાને": 5856,
      "પિતા": 5857,
      "મીડિયાનો": 5858,
      "ગુણવત્તાયુક્ત": 5859,
      "શ્રેણીમાં": 5860,
      "અનાજ": 5861,
      "ઓલિમ્પિક": 5862,
      "એસે": 5863,
      "થયેલા": 5864,
      "ીકરણ": 5865,
      "કરુ": 5866,
      "પ્રદા": 5867,
      "વિનિ": 5868,
      "કોંગ": 5869,
      "સમકક્ષ": 5870,
      "વ્યક્તિનું": 5871,
      "સ્થાનો": 5872,
      "પર્વ": 5873,
      "html": 5874,
      "આજુ": 5875,
      "એશિયા": 5876,
      "માંગુ": 5877,
      "સ્ફ": 5878,
      "સંક્રમણ": 5879,
      "સરહ": 5880,
      "પુટ્સ": 5881,
      "જનરેશન": 5882,
      "દુષ્ટ": 5883,
      "ટોમ": 5884,
      "ફોટા": 5885,
      "ટિપ્સ": 5886,
      "પ્રક્રિયાનો": 5887,
      "ઘટકોને": 5888,
      "ડવાનું": 5889,
      "વસ્તુને": 5890,
      "પહેલેથી": 5891,
      "સ્ટાઇલ": 5892,
      "ઇલેક્ટ્રોન": 5893,
      "રોગચાળો": 5894,
      "પોર્ટ્સ": 5895,
      "એસક્યુએલ": 5896,
      "જાજરમાન": 5897,
      "au": 5898,
      "રાઇ": 5899,
      "મોન": 5900,
      "વપરાયેલ": 5901,
      "ગ્રીસ": 5902,
      "લેવાથી": 5903,
      "બનવું": 5904,
      "ધિકાર": 5905,
      "વિભાજ્ય": 5906,
      "વહેલી": 5907,
      "એઆઇનો": 5908,
      "િયેશન": 5909,
      "optim": 5910,
      "ટૂંકું": 5911,
      "ust": 5912,
      "લાગી": 5913,
      "સંબોધ": 5914,
      "પ્લગ": 5915,
      "સીએસએસ": 5916,
      "વિધે": 5917,
      "ઘટાડીને": 5918,
      "વિશ્વયુદ્ધ": 5919,
      "વરસાદી": 5920,
      "લેવાય": 5921,
      "કિંમતની": 5922,
      "પ્રકૃતિની": 5923,
      "પરિબળોને": 5924,
      "લગાવો": 5925,
      "વિક્ષેપો": 5926,
      "બાસ્કેટબ": 5927,
      "ઓપરેટિંગ": 5928,
      "આઇટમ": 5929,
      "ફેક્ટરી": 5930,
      "હકીકત": 5931,
      "માપદંડ": 5932,
      "મૂળાક્ષ": 5933,
      "ML": 5934,
      "ંખ": 5935,
      "અસમાન": 5936,
      "તલ": 5937,
      "જોકે": 5938,
      "સોડ": 5939,
      "સૂચિમાં": 5940,
      "વર્ષથી": 5941,
      "લગતી": 5942,
      "ડૂબી": 5943,
      "ઉડાન": 5944,
      "સંયોજનો": 5945,
      "જ્વાળામુખી": 5946,
      "બહે": 5947,
      "૫૦": 5948,
      "નાય": 5949,
      "રાઉ": 5950,
      "સોફ્ટ": 5951,
      "રચાય": 5952,
      "શીખે": 5953,
      "તકનીકીની": 5954,
      "આઇકો": 5955,
      "કોડને": 5956,
      "રમતના": 5957,
      "મજબૂ": 5958,
      "ટિકિ": 5959,
      "ઓબ્જેક્ટ્સ": 5960,
      "મહત્ત્વની": 5961,
      "અણુઓ": 5962,
      "લશ્કરી": 5963,
      "થયેલી": 5964,
      "પબ્": 5965,
      "કાડો": 5966,
      "આપમેળે": 5967,
      "વ્યુ": 5968,
      "સેમ": 5969,
      "ઇનપુટ્સ": 5970,
      "પહોળા": 5971,
      "ગુણદોષ": 5972,
      "ટેકનોલોજીની": 5973,
      "બુદ્ધિની": 5974,
      "લાઇટિંગ": 5975,
      "બજારના": 5976,
      "ભીડ": 5977,
      "ગૌરવ": 5978,
      "અશક્ય": 5979,
      "ધાર્": 5980,
      "વાકાં": 5981,
      "મેઘ": 5982,
      "હોવાની": 5983,
      "દુકાન": 5984,
      "સ્થાને": 5985,
      "વાર્ષિક": 5986,
      "પહેલ": 5987,
      "એટલું": 5988,
      "મહત્વાકાં": 5989,
      "ચહેરાની": 5990,
      "અંગ્રેજીમાં": 5991,
      "વ્હાઇટ": 5992,
      "ધાર્મિક": 5993,
      "ંકર": 5994,
      "ઇરા": 5995,
      "કળા": 5996,
      "ટેન્": 5997,
      "જોડો": 5998,
      "મોટર": 5999,
      "યુઝ": 6000,
      "ફોલ્ડ": 6001,
      "સમર્થન": 6002,
      "એવોકાડો": 6003,
      "નાગરિકોને": 6004,
      "જૈવિક": 6005,
      "મ્યુઝિયમ": 6006,
      "ઝાંખી": 6007,
      "પરિપ્રેક્ષ્ય": 6008,
      "27": 6009,
      "so": 6010,
      "દમ": 6011,
      "માસ્ક": 6012,
      "ગ્રસ્ત": 6013,
      "હીરો": 6014,
      "અન્યથા": 6015,
      "સિસ્ટમના": 6016,
      "વિકસાવી": 6017,
      "ભરેલો": 6018,
      "ઇંચની": 6019,
      "મથાળા": 6020,
      "ઈંડા": 6021,
      "રક્ષ": 6022,
      "વૂ": 6023,
      "હોવ": 6024,
      "હાત્મક": 6025,
      "સમયથી": 6026,
      "ડોલ્": 6027,
      "વર્ણવવા": 6028,
      "ગુસ્": 6029,
      "ડાયને": 6030,
      "આકર્ષણ": 6031,
      "કસરતો": 6032,
      "સંગ્રહા": 6033,
      "ગર્વ": 6034,
      "કેનેડા": 6035,
      "ઉત્તેજક": 6036,
      "અજાણ્યા": 6037,
      "સન્માન": 6038,
      "આસિસ્ટન્ટ": 6039,
      "pro": 6040,
      "આવા": 6041,
      "છં": 6042,
      "પડો": 6043,
      "મતિ": 6044,
      "સંગી": 6045,
      "તરફથી": 6046,
      "ભાષાને": 6047,
      "શક્તિને": 6048,
      "પહોંચ્યો": 6049,
      "અસરોની": 6050,
      "જ્હોને": 6051,
      "ટેક્સ્ટને": 6052,
      "તીવ્રતા": 6053,
      "વ્યાવસાયિ": 6054,
      "ચિહ્નિત": 6055,
      "ઘોષણા": 6056,
      "માઇન્ડફુલને": 6057,
      "Apple": 6058,
      "ઓસ્ટ્રેલિયા": 6059,
      "In": 6060,
      "su": 6061,
      "થન": 6062,
      "માસિક": 6063,
      "જાતિઓ": 6064,
      "લીન": 6065,
      "સેવન": 6066,
      "જીડીપી": 6067,
      "બ્સ્": 6068,
      "ગ્રાફિક્સ": 6069,
      "રિમોટ": 6070,
      "ફેડ": 6071,
      "સમજાયું": 6072,
      "હોવાથી": 6073,
      "સમૂહગીત": 6074,
      "પર્યાવરણમાં": 6075,
      "અવાજમાં": 6076,
      "મુદ્દાને": 6077,
      "રેડિયેશન": 6078,
      "ચાવીરૂપ": 6079,
      "ફિલ્ટર": 6080,
      "ગોળાકાર": 6081,
      "ડાર્ક": 6082,
      "સબ્સ્": 6083,
      "હસ્તા": 6084,
      "ક્વ": 6085,
      "સ્તંભ": 6086,
      "પછીના": 6087,
      "શિક્ષણને": 6088,
      "ઇન્ફ્રાસ્ટ્રક્ચર": 6089,
      "ક્રિકેટ": 6090,
      "નાંખો": 6091,
      "ઘાસ": 6092,
      "શરીરમાં": 6093,
      "શાળાના": 6094,
      "આત્મા": 6095,
      "કઠોર": 6096,
      "સેન્ટિમેન્ટ": 6097,
      "કાપડ": 6098,
      "નિશા": 6099,
      "ભાઈ": 6100,
      "બેરોજગારી": 6101,
      "પરિપૂર્ણ": 6102,
      "જોઈને": 6103,
      "અનુક્રમણ": 6104,
      "ગુડ": 6105,
      "કિલ્લા": 6106,
      "કંઇ": 6107,
      "ફિશ": 6108,
      "દેશના": 6109,
      "કેલરી": 6110,
      "ભજવી": 6111,
      "અગ્રતા": 6112,
      "આઇટમ્સ": 6113,
      "શોષી": 6114,
      "પૂંછડી": 6115,
      "અનુક્રમણિકા": 6116,
      "//": 6117,
      "The": 6118,
      "અખ": 6119,
      "કતા": 6120,
      "નર્": 6121,
      "લેખો": 6122,
      "શીટ": 6123,
      "ઊર્જામાં": 6124,
      "ગ્લાસ": 6125,
      "પાણીને": 6126,
      "ઇન્ટરફે": 6127,
      "એપ્લિકેશનમાં": 6128,
      "ખોરાકની": 6129,
      "વિકસાવવી": 6130,
      "બજારની": 6131,
      "ફુટ": 6132,
      "જાગૃત": 6133,
      "બાકીના": 6134,
      "પુરવઠા": 6135,
      "નિષ્ણાત": 6136,
      "શેડ્યૂલ": 6137,
      "આખો": 6138,
      "ધબ": 6139,
      "નોડ": 6140,
      "ભાડે": 6141,
      "દુકા": 6142,
      "પ્રતિભાવો": 6143,
      "પ્રેઝ": 6144,
      "વપરાશને": 6145,
      "આનંદની": 6146,
      "રમવા": 6147,
      "તાપમાનને": 6148,
      "સક્રિયપણે": 6149,
      "પાડવી": 6150,
      "ફ્લેશ": 6151,
      "કમા": 6152,
      "સહે": 6153,
      "ુપ": 6154,
      "માપી": 6155,
      "નોટ": 6156,
      "લાખો": 6157,
      "્યાત્મક": 6158,
      "લેતી": 6159,
      "હેરો": 6160,
      "લીગ": 6161,
      "પોલી": 6162,
      "બોલા": 6163,
      "નીચેનો": 6164,
      "સંખ્યાઓનો": 6165,
      "વિદ્યાર્થીઓની": 6166,
      "જંગલની": 6167,
      "મુસાફ": 6168,
      "સફળતાની": 6169,
      "પ્રત્યેની": 6170,
      "ફ્રિજ": 6171,
      "અપડેટ્સ": 6172,
      "કેટેગરીમાં": 6173,
      "વ્યૂહાત્મક": 6174,
      "આર્કટિક": 6175,
      "વિધેય": 6176,
      "ખજા": 6177,
      "ગળા": 6178,
      "ઘરો": 6179,
      "છત": 6180,
      "તેઓને": 6181,
      "વધવા": 6182,
      "લીધ": 6183,
      "કાર્યમાં": 6184,
      "પ્રાણીની": 6185,
      "શક્તિનો": 6186,
      "કંપનીનું": 6187,
      "દરિયાની": 6188,
      "ચિકિત": 6189,
      "વાવાઝોડા": 6190,
      "વિનિમય": 6191,
      "પબ્લિક": 6192,
      "we": 6193,
      "જતો": 6194,
      "ધનુષ્ય": 6195,
      "રેડિયો": 6196,
      "ટીમને": 6197,
      "પેડ": 6198,
      "રહેવાનો": 6199,
      "સાહસો": 6200,
      "વાર્તાલા": 6201,
      "જટિલતા": 6202,
      "વિચારોને": 6203,
      "સંસ્થાઓને": 6204,
      "ડ્રેગ": 6205,
      "પ્રેરણાદાયક": 6206,
      "વ્હી": 6207,
      "ફકરામાં": 6208,
      "બગીચામાં": 6209,
      "વોશિંગ્ટન": 6210,
      "આઇકોનિક": 6211,
      "અરે": 6212,
      "પત્રો": 6213,
      "લમ": 6214,
      "માંગી": 6215,
      "વિજે": 6216,
      "સંસાધન": 6217,
      "વેવ": 6218,
      "અનપે": 6219,
      "ધીમું": 6220,
      "પીણાં": 6221,
      "્રોઇડ": 6222,
      "કૂદી": 6223,
      "મગજ": 6224,
      "ગેટ્સબી": 6225,
      "ઇંગ્": 6226,
      "ઝુ": 6227,
      "રિયન": 6228,
      "હરા": 6229,
      "ર્જી": 6230,
      "કાફે": 6231,
      "બ્લૂ": 6232,
      "વનનાબૂદી": 6233,
      "કાયેલા": 6234,
      "પડતી": 6235,
      "પડછાયા": 6236,
      "બંનેને": 6237,
      "સમજવું": 6238,
      "ઘાત": 6239,
      "વર્ગમાં": 6240,
      "સાંજે": 6241,
      "દર્દીની": 6242,
      "અમેરિકામાં": 6243,
      "પગલાઓની": 6244,
      "રિયલ": 6245,
      "બેક્ટેરિયા": 6246,
      "વાટાઘાટો": 6247,
      "ma": 6248,
      "રક્ત": 6249,
      "સજીવ": 6250,
      "જોયો": 6251,
      "તીક્ષ્": 6252,
      "ટોપી": 6253,
      "ટોક્યો": 6254,
      "અસરનું": 6255,
      "મ્પ્ટ": 6256,
      "ચાલતી": 6257,
      "શિયમ": 6258,
      "યેલો": 6259,
      "બહારની": 6260,
      "પરિસ્થિતિઓ": 6261,
      "સ્થળે": 6262,
      "વંશી": 6263,
      "ચાઇનીઝ": 6264,
      "દ્વિસંગી": 6265,
      "હિલચાલ": 6266,
      "તીક્ષ્ણ": 6267,
      "એક્શન": 6268,
      "રસાયણ": 6269,
      "શ્યા": 6270,
      "માઉસ": 6271,
      "માન્યતાઓ": 6272,
      "લાંબો": 6273,
      "સ્ટેશન": 6274,
      "પહોંચવામાં": 6275,
      "ટેકનોલોજીના": 6276,
      "અંધારા": 6277,
      "ન્યાયી": 6278,
      "પેકેજિંગ": 6279,
      "વિસ્ફો": 6280,
      "1000": 6281,
      "અનો": 6282,
      "ભવ": 6283,
      "માટી": 6284,
      "સ્પોર્ટ્સ": 6285,
      "ટેકરી": 6286,
      "ન્ટેડ": 6287,
      "વેન": 6288,
      "આવેલું": 6289,
      "ગેલેક્": 6290,
      "શિકારી": 6291,
      "કંડ": 6292,
      "વર્ષનો": 6293,
      "આરોગ્યપ્રદ": 6294,
      "તત્વોની": 6295,
      "પ્રવૃત્તિઓને": 6296,
      "સાંભળી": 6297,
      "અપેક્ષાઓ": 6298,
      "ભૂતકાળની": 6299,
      "અદલા": 6300,
      "ફ્રેન્ડલી": 6301,
      "અનપેક્ષિત": 6302,
      "my": 6303,
      "ખતર": 6304,
      "ગણો": 6305,
      "ડ્રિ": 6306,
      "સ્પ્રે": 6307,
      "કોઇ": 6308,
      "પાતળા": 6309,
      "વોઇસ": 6310,
      "આપત્તિ": 6311,
      "સુમેળ": 6312,
      "શાલ": 6313,
      "કીવર્ડ": 6314,
      "ખોવાઈ": 6315,
      "શોધે": 6316,
      "પીછો": 6317,
      "ગ્રીક": 6318,
      "ડવાનો": 6319,
      "ઘટનાઓની": 6320,
      "સ્ત્રોતોમાં": 6321,
      "ઇલેક્ટ્રોનિક": 6322,
      "ઉમેરવામાં": 6323,
      "ડાયનાસોર": 6324,
      "મિકેનિક્સ": 6325,
      "ચુંબકીય": 6326,
      "વડ": 6327,
      "વશો": 6328,
      "કોર્ટ": 6329,
      "શીખવું": 6330,
      "નક્કર": 6331,
      "લેટમાં": 6332,
      "ઇનપુટને": 6333,
      "ગોઠવવા": 6334,
      "વિશ્વસનીયતા": 6335,
      "ટુકડો": 6336,
      "બદલાય": 6337,
      "ભયંકર": 6338,
      "ટ્વી": 6339,
      "ઉનાળાની": 6340,
      "અઠવાડ": 6341,
      "સબમિટ": 6342,
      "બાસ્કેટબોલ": 6343,
      "ન્ટેશન": 6344,
      "તોફાની": 6345,
      "પ્રામાણિકપણે": 6346,
      "ખતરનાક": 6347,
      "ઝની": 6348,
      "થું": 6349,
      "શમાં": 6350,
      "નિવાસ": 6351,
      "િયાનો": 6352,
      "બેન્": 6353,
      "શબ્દના": 6354,
      "એસઇઓ": 6355,
      "કાઢવા": 6356,
      "સમુદ્રનું": 6357,
      "વાંચી": 6358,
      "યાદગાર": 6359,
      "શીખવાના": 6360,
      "કિલોમીટર": 6361,
      "3x": 6362,
      "400": 6363,
      "55": 6364,
      "ck": 6365,
      "ઉતર": 6366,
      "સણ": 6367,
      "સ્યુ": 6368,
      "વિજ્": 6369,
      "મેક્સ": 6370,
      "પેન્સિ": 6371,
      "યુકે": 6372,
      "સમાચારો": 6373,
      "કોઈની": 6374,
      "તુર": 6375,
      "વધારવાની": 6376,
      "ગ્લુ": 6377,
      "રાજકારણ": 6378,
      "ઝેર": 6379,
      "નેટવર્કને": 6380,
      "અભ્યાસક્રમ": 6381,
      "પકડી": 6382,
      "ટીમમાં": 6383,
      "કદના": 6384,
      "ચેનલો": 6385,
      "ઇટાલી": 6386,
      "સ્થિતિસ્થાપકતા": 6387,
      "સ્વિમિંગ": 6388,
      "):": 6389,
      "76": 6390,
      "ઊભા": 6391,
      "દંડ": 6392,
      "હન": 6393,
      "નાખે": 6394,
      "સુગમ": 6395,
      "જીવવા": 6396,
      "જનિક": 6397,
      "નામના": 6398,
      "વસ્તુની": 6399,
      "પ્રકાશની": 6400,
      "ગુણવત્તાની": 6401,
      "એકબીજાને": 6402,
      "પોઇન્ટ્સ": 6403,
      "એન્ડ્રોઇડ": 6404,
      "બતાવે": 6405,
      "ભૂતકાળમાં": 6406,
      "--------": 6407,
      "ંટ": 6408,
      "અજાય": 6409,
      "આખી": 6410,
      "જ્યુ": 6411,
      "પિયર": 6412,
      "રેલા": 6413,
      "મોજા": 6414,
      "સિગ્ન": 6415,
      "યુવતી": 6416,
      "ફેંકી": 6417,
      "આવતો": 6418,
      "વાદળ": 6419,
      "વસ્તુઓનો": 6420,
      "લેવાતી": 6421,
      "ધોરણો": 6422,
      "ાયેલી": 6423,
      "ક્રાંતિકારી": 6424,
      "ભવિષ્યના": 6425,
      "શુદ્ધ": 6426,
      "કમ્પોઝ": 6427,
      "હલાવતા": 6428,
      "સાર્વજનિક": 6429,
      "અજાયબી": 6430,
      "with": 6431,
      "એવ": 6432,
      "દયાળુ": 6433,
      "પથ": 6434,
      "કરન્સી": 6435,
      "વિટી": 6436,
      "વિંડો": 6437,
      "રેફ્રિજ": 6438,
      "ઉપયોગો": 6439,
      "મોના": 6440,
      "પૂર્ણાં": 6441,
      "ડિસ": 6442,
      "પરાયું": 6443,
      "ઊર્જાનું": 6444,
      "આનંદકારક": 6445,
      "ઉદાર": 6446,
      "લેન્ડર": 6447,
      "સંકળાયેલી": 6448,
      "હસ્તક્ષે": 6449,
      "રીગ્રેસન": 6450,
      "૧૨": 6451,
      "કેચર": 6452,
      "ડાઓ": 6453,
      "સૂકા": 6454,
      "પ્રોમ્પ્ટ": 6455,
      "બચાવી": 6456,
      "બદલીને": 6457,
      "________": 6458,
      "અહેવાલો": 6459,
      "સાપેક્ષતાનો": 6460,
      "વર્તુળ": 6461,
      "પારદર્શક": 6462,
      "સમયપત્રક": 6463,
      "દરિયાકાંઠા": 6464,
      "અવિભાજ્ય": 6465,
      "કિક": 6466,
      "ક્વિઝ": 6467,
      "સ્થાયી": 6468,
      "કોઈએ": 6469,
      "ધારણા": 6470,
      "ભાગ્ય": 6471,
      "દેશની": 6472,
      "સંભાળની": 6473,
      "તંદુરસ્તી": 6474,
      "est": 6475,
      "સરકારની": 6476,
      "પ્લાસ્ટિકની": 6477,
      "વર્ગખંડમાં": 6478,
      "ટાઇટલ": 6479,
      "ઓટોમેટેડ": 6480,
      "મેઘધનુષ્ય": 6481,
      "po": 6482,
      "આક્ર": 6483,
      "ઉથ": 6484,
      "એલેક્": 6485,
      "કન્ડ": 6486,
      "રીઅલ": 6487,
      "સુગર": 6488,
      "ખાવાથી": 6489,
      "પ્રતિકાર": 6490,
      "મંથન": 6491,
      "વૈજ્": 6492,
      "ઉમેરી": 6493,
      "સ્પષ્ટતા": 6494,
      "કલાકની": 6495,
      "પ્રયાસો": 6496,
      "મેટ્રિક": 6497,
      "ન્યૂન": 6498,
      "ચકાસવા": 6499,
      "હિમાયત": 6500,
      "વસં": 6501,
      "સ્પર": 6502,
      "શોપ": 6503,
      "પ્રેશર": 6504,
      "સામગ્રીના": 6505,
      "ઉમેરીને": 6506,
      "ન્યુટ્રો": 6507,
      "પ્લાન": 6508,
      "ઉદ્યોગસાહસિક": 6509,
      "સહાયકો": 6510,
      "જમીનના": 6511,
      "પ્રયોગો": 6512,
      "out": 6513,
      "તેટલું": 6514,
      "લંબચોરસ": 6515,
      "સ્લાઇડ": 6516,
      "ફિલસૂ": 6517,
      "પેસિફિક": 6518,
      "આક્રમક": 6519,
      "?-": 6520,
      "અંક": 6521,
      "આકારો": 6522,
      "પણા": 6523,
      "રમુ": 6524,
      "સ્લી": 6525,
      "સાચ": 6526,
      "કોટ": 6527,
      "હોલ્ડ": 6528,
      "લીઝ": 6529,
      "સેવ": 6530,
      "બેન્ડ": 6531,
      "બીટ": 6532,
      "બોબ": 6533,
      "પ્રતિકારક": 6534,
      "પડ્યું": 6535,
      "શિયન": 6536,
      "જોખમને": 6537,
      "તકનીકીઓ": 6538,
      "આહારમાં": 6539,
      "અધિકારી": 6540,
      "મહત્ત્વપૂર્ણ": 6541,
      "ઉલ્લં": 6542,
      "ગુલાબી": 6543,
      "સંકળાયેલું": 6544,
      "અપાવે": 6545,
      "પ્રોફેસર": 6546,
      "વિશ્લેષ": 6547,
      "રમુજી": 6548,
      "``": 6549,
      "એપી": 6550,
      "ઘટે": 6551,
      "નાજુ": 6552,
      "તાવ": 6553,
      "બોટલ": 6554,
      "મિયો": 6555,
      "ષ્ટા": 6556,
      "ન્સની": 6557,
      "ક્સિંગ": 6558,
      "જુસ્": 6559,
      "શક્યા": 6560,
      "ડિઝાઇનમાં": 6561,
      "સ્થિતિને": 6562,
      "સુવિધાઓની": 6563,
      "પરીક્ષણો": 6564,
      "વિભાગો": 6565,
      "સ્ત્રોતોનો": 6566,
      "બ્રાઉઝર": 6567,
      "અતિશ": 6568,
      "ઇન્સ્યુ": 6569,
      "ગેલેક્સી": 6570,
      "42": 6571,
      "iz": 6572,
      "ly": 6573,
      "મર્": 6574,
      "પ્રૂ": 6575,
      "કોઝ": 6576,
      "માનવા": 6577,
      "રિલે": 6578,
      "પ્રતિભા": 6579,
      "ભાગને": 6580,
      "શીખવામાં": 6581,
      "માઇકલ": 6582,
      "ભરપૂર": 6583,
      "કનેક્શન": 6584,
      "સ્કેન": 6585,
      "ફેલાવો": 6586,
      "મ્યુનિ": 6587,
      "સ્ટાઇન": 6588,
      "વિરામચિહ્નો": 6589,
      "બિંદુઓ": 6590,
      "વિલિયમ": 6591,
      "ધ્રુવીય": 6592,
      "ન્યૂનતમ": 6593,
      "ii": 6594,
      "ne": 6595,
      "આવર્તન": 6596,
      "ઉલ": 6597,
      "બ્સ": 6598,
      "વાતો": 6599,
      "લાવો": 6600,
      "કોમર્સ": 6601,
      "કાટ": 6602,
      "જોર": 6603,
      "નિસ": 6604,
      "નિરાશ": 6605,
      "ણીકરણ": 6606,
      "પરિમાણ": 6607,
      "ચિત્": 6608,
      "સમસ્યાનો": 6609,
      "મળ્યા": 6610,
      "આરોગ્યને": 6611,
      "અવગણ": 6612,
      "કનેક્": 6613,
      "ખેડ": 6614,
      "વાક્યોને": 6615,
      "કાયદાઓ": 6616,
      "રાજ્યમાં": 6617,
      "ન્યૂઝ": 6618,
      "દાખલાઓને": 6619,
      "પુસ્તકોની": 6620,
      "પ્રમાણીકરણ": 6621,
      "ગર્ભ": 6622,
      "ઉત્તેજીત": 6623,
      "બટાટા": 6624,
      "માઇન્ડફુલનેસ": 6625,
      "',": 6626,
      "ણની": 6627,
      "તપા": 6628,
      "વસ્ત્રો": 6629,
      "કોમેડી": 6630,
      "મેડિ": 6631,
      "હોરર": 6632,
      "ડેમો": 6633,
      "વપરાયેલી": 6634,
      "ફીચર્સ": 6635,
      "સફળતાપૂર્વક": 6636,
      "દુનિયાની": 6637,
      "ંચાઈ": 6638,
      "પ્રણાલીઓ": 6639,
      "ખુશખુ": 6640,
      "સત્તાવાર": 6641,
      "અંધકારમય": 6642,
      "જથ્થો": 6643,
      "સ્ટિક્સ": 6644,
      "મોકલવામાં": 6645,
      "ક્ષ્મ": 6646,
      "સોનેરી": 6647,
      "ઓર્ગેનિક": 6648,
      "==": 6649,
      "અલી": 6650,
      "લક્": 6651,
      "સિવાય": 6652,
      "ફોલિયો": 6653,
      "રચવા": 6654,
      "ગ્ધ": 6655,
      "સ્ટોરમાં": 6656,
      "હોવાને": 6657,
      "એટલો": 6658,
      "સાંભળ્યું": 6659,
      "સાપેક્ષતા": 6660,
      "હલાવો": 6661,
      "કિસ્સામાં": 6662,
      "રહેઠાણો": 6663,
      "HTML": 6664,
      "છમ": 6665,
      "છદ્": 6666,
      "વિપુલ": 6667,
      "રોડ": 6668,
      "યુક્તિ": 6669,
      "તરફે": 6670,
      "ફરન્સ": 6671,
      "પ્રક્રિયાના": 6672,
      "એઆઈના": 6673,
      "એઆઈની": 6674,
      "અપવાદ": 6675,
      "સમજવાની": 6676,
      "ટકાવ": 6677,
      "વ્યૂહરચનાની": 6678,
      "સમાંતર": 6679,
      "ઉંદર": 6680,
      "મહિનામાં": 6681,
      "પોર્ટફોલિયો": 6682,
      "ઉપકરણોનો": 6683,
      "સદીના": 6684,
      "ઓરડામાં": 6685,
      "બ્રોકોલી": 6686,
      "print": 6687,
      "ઇમારતો": 6688,
      "છંટકાવ": 6689,
      "જવાની": 6690,
      "મેનુ": 6691,
      "મોસમ": 6692,
      "બનશે": 6693,
      "વેબસાઇટના": 6694,
      "બચાવ": 6695,
      "શબ્દસમૂહનો": 6696,
      "મગજની": 6697,
      "વોલ્યુશનલ": 6698,
      "હુમલા": 6699,
      "હૂંફાળું": 6700,
      "ખુશખુશાલ": 6701,
      "do": 6702,
      "te": 6703,
      "ઋતુ": 6704,
      "પૂછો": 6705,
      "પેસ્ટ": 6706,
      "પરિમાણો": 6707,
      "વ્યાપાર": 6708,
      "શબ્દોના": 6709,
      "રોગપ્રતિકારક": 6710,
      "ધરાવતો": 6711,
      "બન્યા": 6712,
      "સલાડ": 6713,
      "પાત્રનું": 6714,
      "મોડેલિંગ": 6715,
      "દેશોના": 6716,
      "શેરના": 6717,
      "કન્વોલ્યુશનલ": 6718,
      "ખડકો": 6719,
      "જૈવવિવિધ": 6720,
      "મંતવ્યો": 6721,
      "કરુણા": 6722,
      "અધ્ય": 6723,
      "ઑપ્ટિમાઇઝેશન": 6724,
      "ફાર્": 6725,
      "વિયે": 6726,
      "રોબર્ટ": 6727,
      "ગ્રિ": 6728,
      "બીસી": 6729,
      "છાલ": 6730,
      "હિં": 6731,
      "દેશનું": 6732,
      "શૈલીમાં": 6733,
      "તારણો": 6734,
      "લખાણનો": 6735,
      "ચમકતા": 6736,
      "એકાગ્રતા": 6737,
      "અર્ધ": 6738,
      "વંશીય": 6739,
      "વસંત": 6740,
      "ખંડો": 6741,
      "કેવા": 6742,
      "સંમતિ": 6743,
      "મેલો": 6744,
      "પાસ્તા": 6745,
      "લોહી": 6746,
      "રોમિયો": 6747,
      "શેક્સ": 6748,
      "ડાઈ": 6749,
      "ંચી": 6750,
      "ળીઓ": 6751,
      "શક્તિઓ": 6752,
      "સમસ્યાઓનું": 6753,
      "ઉદ્યાન": 6754,
      "સમજને": 6755,
      "ચોક્કસપણે": 6756,
      "નેટવર્કમાં": 6757,
      "સંસાધનોના": 6758,
      "પૃષ્ઠો": 6759,
      "ત્યારથી": 6760,
      "યુદ્ધમાં": 6761,
      "અંદાજિત": 6762,
      "મોડ્યુ": 6763,
      "ઓફિસ": 6764,
      "બેઠક": 6765,
      "વાયરલેસ": 6766,
      "ફેરનહિટ": 6767,
      "સપ્તાહના": 6768,
      "ઉભી": 6769,
      "ગણી": 6770,
      "ચર્ડ": 6771,
      "શનો": 6772,
      "હર્": 6773,
      "પ્રવેગ": 6774,
      "જોતો": 6775,
      "જોયા": 6776,
      "પોત": 6777,
      "ગીચ": 6778,
      "સમયનું": 6779,
      "વાક્યરચના": 6780,
      "સીઓ": 6781,
      "ગ્રેશન": 6782,
      "લ્યુશન્સ": 6783,
      "સચોટતા": 6784,
      "પદ્ધતિઓમાં": 6785,
      "આઈન્": 6786,
      "ડિસ્ક": 6787,
      "રીતોની": 6788,
      "ity": 6789,
      "સુખદ": 6790,
      "એકલતા": 6791,
      "વાર્તાલાપ": 6792,
      "64": 6793,
      "ઓરિ": 6794,
      "દયા": 6795,
      "મનને": 6796,
      "સંલગ્ન": 6797,
      "પાછું": 6798,
      "િયું": 6799,
      "વોલ્": 6800,
      "સિમ્યુ": 6801,
      "ગ્રામીણ": 6802,
      "મૂક્યો": 6803,
      "દેવા": 6804,
      "ક્ષમતાને": 6805,
      "ત્યાંથી": 6806,
      "ટ્રેન": 6807,
      "વ્યૂહરચનામાં": 6808,
      "અલ્ગોરિધમ્સ": 6809,
      "પરિસ્થિતિમાં": 6810,
      "cover": 6811,
      "ઓપરેટિન": 6812,
      "બ્રહ્માંડના": 6813,
      "હોસ્ટિંગ": 6814,
      "રસાયણશાસ્ત્ર": 6815,
      "ke": 6816,
      "pe": 6817,
      "અભૂતપૂર્વ": 6818,
      "તાકી": 6819,
      "ડેલ": 6820,
      "ખાં": 6821,
      "સોલ્યુશન્સ": 6822,
      "ફોનની": 6823,
      "શકતી": 6824,
      "ટકાવી": 6825,
      "આગાહીયુક્ત": 6826,
      "તકનીકીએ": 6827,
      "એપ્લિકેશનને": 6828,
      "છેલ્લી": 6829,
      "દરિયાકિનારા": 6830,
      "ઘરેથી": 6831,
      "પગલાઓ": 6832,
      "ફૂટબોલ": 6833,
      "કાગળના": 6834,
      "અટકાવે": 6835,
      "ફૂટપ્રિન્ટને": 6836,
      "મજૂર": 6837,
      "આઠ": 6838,
      "આબે": 6839,
      "જું": 6840,
      "નફો": 6841,
      "ફરે": 6842,
      "મશરૂ": 6843,
      "હોસ્પિ": 6844,
      "શેક": 6845,
      "ગ્રાન્ડ": 6846,
      "પ્રાકૃતિક": 6847,
      "માણસો": 6848,
      "ફિલ્ડ": 6849,
      "મિતિ": 6850,
      "ઉમેદવા": 6851,
      "હાથમાં": 6852,
      "રાંધેલા": 6853,
      "શાળાઓ": 6854,
      "દલીલો": 6855,
      "ડ્રાઇવર": 6856,
      "હાઇકુ": 6857,
      "બપોરે": 6858,
      "નસીબ": 6859,
      "im": 6860,
      "ચિંગ": 6861,
      "ટનો": 6862,
      "પતન": 6863,
      "રશિયા": 6864,
      "નેતાઓ": 6865,
      "ન્ક": 6866,
      "એકમ": 6867,
      "જોતા": 6868,
      "નિપુ": 6869,
      "ભાન": 6870,
      "ંતરણ": 6871,
      "વ્યાજ": 6872,
      "કંપનીને": 6873,
      "આનંદદાયક": 6874,
      "ક્ષેત્રની": 6875,
      "ખોરાકનો": 6876,
      "ઉદ્યોગોમાં": 6877,
      "૧૦૦": 6878,
      "સંપાદન": 6879,
      "રેસ્ટોરન્ટમાં": 6880,
      "રસ્તાઓ": 6881,
      "ઉદ્દેશ": 6882,
      "યુનિયન": 6883,
      "લંડન": 6884,
      "ધૂમ્રપાન": 6885,
      "નિપુણ": 6886,
      "ઘડ": 6887,
      "ટકો": 6888,
      "પદો": 6889,
      "મ્ય": 6890,
      "વિન્ડ": 6891,
      "સેકન્ડ": 6892,
      "મનોહર": 6893,
      "હિની": 6894,
      "ભરવા": 6895,
      "આકાશને": 6896,
      "બ્રેડની": 6897,
      "ચ્છનીય": 6898,
      "દૃષ્ટિની": 6899,
      "રંગીન": 6900,
      "ક્ષેત્રોને": 6901,
      "આલ્બર્ટ": 6902,
      "અનિચ્છનીય": 6903,
      "પ્રતિબદ્ધતા": 6904,
      "આજુબાજુ": 6905,
      "ખેડૂત": 6906,
      "77": 6907,
      "અમારું": 6908,
      "આક્રમણ": 6909,
      "ઉત": 6910,
      "માતા": 6911,
      "કેસો": 6912,
      "વિડિયો": 6913,
      "વીડિયો": 6914,
      "ડેન": 6915,
      "િયાના": 6916,
      "બાઇન": 6917,
      "ટીસ્પૂન": 6918,
      "સૂક્ષ્મ": 6919,
      "મિલિય": 6920,
      "પછીથી": 6921,
      "વાર્તામાં": 6922,
      "ઓમાંની": 6923,
      "જાણતા": 6924,
      "str": 6925,
      "રોકડ": 6926,
      "ખંડિત": 6927,
      "હેલ્થકેરમાં": 6928,
      "તથ્ય": 6929,
      "erson": 6930,
      "ખુલ્લી": 6931,
      "બ્લોક્સ": 6932,
      "રમૂજી": 6933,
      "સુગમતા": 6934,
      "એથ્": 6935,
      "ગ્સ": 6936,
      "માની": 6937,
      "વાઇન": 6938,
      "સાપ": 6939,
      "એકઠી": 6940,
      "આપતો": 6941,
      "તીકરણ": 6942,
      "ખ્યાલો": 6943,
      "ટિશ": 6944,
      "રાખું": 6945,
      "શબ્દભંડોળ": 6946,
      "પાસવર્ડ્સ": 6947,
      "વેરિયે": 6948,
      "સંખ્યાની": 6949,
      "નોંધણી": 6950,
      "પક્ષપા": 6951,
      "કાઢે": 6952,
      "સાંભળો": 6953,
      "પ્લેયર": 6954,
      "તાજેતરની": 6955,
      "હિંમતવાન": 6956,
      "ટ્ટા": 6957,
      "હેડલાઇન": 6958,
      "મોકલવા": 6959,
      "અગાઉથી": 6960,
      "̦̦̦̦̦̦̦̦": 6961,
      "હૂબ": 6962,
      "પેન્સિલ": 6963,
      "ગ્લુકોઝ": 6964,
      "આબેહૂબ": 6965,
      "વેરિયેબલ": 6966,
      "રણે": 6967,
      "વોલ": 6968,
      "હોટ": 6969,
      "જોવાનું": 6970,
      "નિવાર": 6971,
      "સોર્ટ": 6972,
      "ગેસના": 6973,
      "નીચેનાનો": 6974,
      "રંગબે": 6975,
      "કૂકી": 6976,
      "વિધાનને": 6977,
      "મીડિયાની": 6978,
      "સમુદ્રમાં": 6979,
      "જગ્યાઓ": 6980,
      "ફેસબુક": 6981,
      "જોખમોને": 6982,
      "અવકાશમાં": 6983,
      "ચાર્લ્સ": 6984,
      "કારણોસર": 6985,
      "સપનું": 6986,
      "મ્યુઝિક": 6987,
      "ક્રિપ્ટોકરન્સી": 6988,
      "જન્મદિવ": 6989,
      ".,": 6990,
      "34": 6991,
      "sn": 6992,
      "અથ": 6993,
      "ઓક્ટો": 6994,
      "પશુ": 6995,
      "લહેર": 6996,
      "વારી": 6997,
      "વારા": 6998,
      "વાયો": 6999,
      "લેરી": 7000,
      "રેમ": 7001,
      "લીધું": 7002,
      "ખાતી": 7003,
      "ટીકા": 7004,
      "પરિભ્રમણ": 7005,
      "સૌમ્ય": 7006,
      "સુધીનો": 7007,
      "ગેટ": 7008,
      "ગુફા": 7009,
      "કારણોની": 7010,
      "જુલિય": 7011,
      "ચાલતા": 7012,
      "અવલોકન": 7013,
      "જોડાઓ": 7014,
      "પરિસ્થિતિને": 7015,
      "આહારની": 7016,
      "ફેલાવાને": 7017,
      "અપેક્ષિત": 7018,
      "બદલામાં": 7019,
      "સહયોગી": 7020,
      "ઉનાળો": 7021,
      "oun": 7022,
      "દવાઓ": 7023,
      "ટીપ્સની": 7024,
      "મેડિકલ": 7025,
      "અભિગમો": 7026,
      "અદલાબદલી": 7027,
      "રંગબેરંગી": 7028,
      "પથ્": 7029,
      "ૂન": 7030,
      "કેરી": 7031,
      "જેમને": 7032,
      "કોરલ": 7033,
      "નિમ": 7034,
      "્રોલ": 7035,
      "વર્તનને": 7036,
      "કંપનીમાં": 7037,
      "નુષ": 7038,
      "ધોરણે": 7039,
      "પ્રણાલીમાં": 7040,
      "સુસંગતતા": 7041,
      "ગર્જના": 7042,
      "અગાઉના": 7043,
      "ચિંતાઓભી": 7044,
      "તુલ્ય": 7045,
      "અસામાન્ય": 7046,
      "અવ્યવસ્થિત": 7047,
      "આયુ": 7048,
      "ઈઓ": 7049,
      "ગાર્ડ": 7050,
      "જબર": 7051,
      "તજ": 7052,
      "દંત": 7053,
      "ધંધા": 7054,
      "નૂ": 7055,
      "બટન": 7056,
      "નોઈનપુટ": 7057,
      "વેતન": 7058,
      "રેઝ": 7059,
      "સોલ": 7060,
      "ઉત્સુ": 7061,
      "બંધબે": 7062,
      "મહત્વને": 7063,
      "ધરાવતું": 7064,
      "દિવસમાં": 7065,
      "વિચારને": 7066,
      "ઉદભવ": 7067,
      "પસંદગીના": 7068,
      "લ્ટી": 7069,
      "પ્લેસ": 7070,
      "નિવેદનને": 7071,
      "મોડેલોનો": 7072,
      "col": 7073,
      "ઘટાડવું": 7074,
      "લાયક": 7075,
      "કઠોળ": 7076,
      "રાજકુમારી": 7077,
      "પર્યટન": 7078,
      "કંટાળા": 7079,
      "ment": 7080,
      "ter": 7081,
      "અખંડિત": 7082,
      "જવામાં": 7083,
      "ફિંગ": 7084,
      "લડાઇ": 7085,
      "વગા": 7086,
      "શકા": 7087,
      "૧૫": 7088,
      "સ્ને": 7089,
      "વિલંબ": 7090,
      "સાઉન્ડ": 7091,
      "જીકરણ": 7092,
      "ક્ષણો": 7093,
      "ગામમાં": 7094,
      "ધારણ": 7095,
      "ગુમ": 7096,
      "ઝાડની": 7097,
      "સ્ટોપ": 7098,
      "ત્રીજા": 7099,
      "રમતની": 7100,
      "વિષયને": 7101,
      "નજીકની": 7102,
      "ઘાસના": 7103,
      "દુનિયાને": 7104,
      "પ્રયત્નશીલ": 7105,
      "ચકાસો": 7106,
      "જંતુના": 7107,
      "ધુમ્": 7108,
      "પહોળાઈ": 7109,
      "હસ્તાક્ષર": 7110,
      "ંકાય": 7111,
      "કદી": 7112,
      "બૌ": 7113,
      "લાવવામાં": 7114,
      "એકદમ": 7115,
      "હોતી": 7116,
      "ઉપભો": 7117,
      "હવાનું": 7118,
      "કંપનીએ": 7119,
      "વિચારશીલ": 7120,
      "ઘટકોનો": 7121,
      "નકશો": 7122,
      "ઘટાડવો": 7123,
      "આવતીકાલે": 7124,
      "બ્રિટિશ": 7125,
      "ચલણ": 7126,
      "શાસ્ત્રીય": 7127,
      "વન્યપ્રાણી": 7128,
      "અડધા": 7129,
      "અઠવાડિયે": 7130,
      "એલેક્ઝા": 7131,
      "ઉકાળો": 7132,
      "એલે": 7133,
      "કક્ષા": 7134,
      "ગંત": 7135,
      "જળવા": 7136,
      "નિત": 7137,
      "જાડા": 7138,
      "કરીશું": 7139,
      "રોમન": 7140,
      "સૂઈ": 7141,
      "ટોર્": 7142,
      "ફાસ્ટ": 7143,
      "મંત્ર": 7144,
      "ભાગ્યે": 7145,
      "લેવાના": 7146,
      "પરિવર્તનના": 7147,
      "આગળના": 7148,
      "યાદીને": 7149,
      "બચાવવામાં": 7150,
      "રેખાઓ": 7151,
      "પહોંચાડ": 7152,
      "સસ્તું": 7153,
      "ચમકતો": 7154,
      "સ્કૂલ": 7155,
      "રુચિઓ": 7156,
      "સૃપ": 7157,
      "ટકાઉપણું": 7158,
      "ઉલ્લંઘન": 7159,
      "ગંતવ્ય": 7160,
      "()": 7161,
      "સસ્તી": 7162,
      "માગ": 7163,
      "કાપે": 7164,
      "પાડીને": 7165,
      "યોગિક": 7166,
      "સેકંડ": 7167,
      "કાર્યકારી": 7168,
      "વસ્તુઓના": 7169,
      "ચિત્રો": 7170,
      "ઉત્પાદનનું": 7171,
      "માર્ગમાં": 7172,
      "ટકાવારી": 7173,
      "બુદ્ધિના": 7174,
      "ક્ષેત્રના": 7175,
      "બનેલો": 7176,
      "બ્રેક": 7177,
      "તત્વોનો": 7178,
      "પરિવહનનો": 7179,
      "જૂથને": 7180,
      "વિષયોની": 7181,
      "ફર્સ્ટ": 7182,
      "જાપાની": 7183,
      "ક્વિનો": 7184,
      "મથાળું": 7185,
      "અસ્વસ્થતા": 7186,
      "પશ્ચિમ": 7187,
      "કૂદકો": 7188,
      "સંગ્રહાલય": 7189,
      "n6": 7190,
      "ઉગા": 7191,
      "શસ્": 7192,
      "પ્રચ": 7193,
      "રાઉન્ડ": 7194,
      "કોનું": 7195,
      "તમાળા": 7196,
      "હાવ": 7197,
      "નિકલ": 7198,
      "નીચેનામાંથી": 7199,
      "અર્થશાસ્ત્ર": 7200,
      "ગતિમાં": 7201,
      "ખરીદે": 7202,
      "શિક્ષણનો": 7203,
      "ભૂમિકાઓ": 7204,
      "બલ્બ": 7205,
      "પ્લેટફોર્મનો": 7206,
      "પર્વતમાળા": 7207,
      "તપાસો": 7208,
      "કંટાળાજનક": 7209,
      "name": 7210,
      "ue": 7211,
      "અતુલ્ય": 7212,
      "ઇયા": 7213,
      "એરિ": 7214,
      "ગસ્ટ": 7215,
      "જર્": 7216,
      "તડકા": 7217,
      "રસાય": 7218,
      "વક્તા": 7219,
      "માણીય": 7220,
      "વાહિની": 7221,
      "વીપી": 7222,
      "સ્ટ્રા": 7223,
      "ખાવાનું": 7224,
      "પ્લોટ": 7225,
      "શીખ્યા": 7226,
      "હાર્ટ": 7227,
      "કિના": 7228,
      "ગ્રાહકોનો": 7229,
      "ચિંત": 7230,
      "કુશળતાને": 7231,
      "બનાવવો": 7232,
      "મિત્રને": 7233,
      "ઇંડાને": 7234,
      "ફાઇલો": 7235,
      "ફાઇબર": 7236,
      "એરેને": 7237,
      "પહોંચાડવા": 7238,
      "જર્મન": 7239,
      "મેડલ": 7240,
      "બાંધકામ": 7241,
      "જૈવવિવિધતા": 7242,
      "સ્વયંસંચાલિત": 7243,
      "ક્ષિતિજ": 7244,
      "રસાયણો": 7245,
      "vi": 7246,
      "કદર": 7247,
      "ચહેરો": 7248,
      "છટકી": 7249,
      "સદ્": 7250,
      "પ્રજન": 7251,
      "પ્રદેશ": 7252,
      "કોસ્": 7253,
      "લોન્ચ": 7254,
      "જીબી": 7255,
      "પરિમાણીય": 7256,
      "ડિબગ": 7257,
      "ગાઢ": 7258,
      "જૂન": 7259,
      "ન્સને": 7260,
      "મંદિ": 7261,
      "ભાગના": 7262,
      "જ્ઞાનને": 7263,
      "ચિપ્સ": 7264,
      "નેટવર્કના": 7265,
      "વ્યવસાયને": 7266,
      "સ્ટ્રક્ચર્ડ": 7267,
      "એનિમેશન": 7268,
      "આઇસક્રીમ": 7269,
      "ફોર્મેટમાં": 7270,
      "મેગ્નેટ": 7271,
      "ભિન્ન": 7272,
      "મજબૂતીકરણ": 7273,
      "અપવાદરૂપ": 7274,
      "આયુષ્ય": 7275,
      "બૌદ્ધ": 7276,
      "og": 7277,
      "અપૂર્ણાંક": 7278,
      "અત્યા": 7279,
      "એપ્રિ": 7280,
      "કળતા": 7281,
      "ખિક": 7282,
      "થવી": 7283,
      "વચ": 7284,
      "૦૦": 7285,
      "સ્કાય": 7286,
      "ક્સર": 7287,
      "નોબેલ": 7288,
      "કોર": 7289,
      "સંવા": 7290,
      "ડેરી": 7291,
      "બ્લડ": 7292,
      "પ્રાયોગિક": 7293,
      "અનુકરણ": 7294,
      "ન્ડ્રો": 7295,
      "શકતું": 7296,
      "ખોરાકને": 7297,
      "સ્વતંત્રતાની": 7298,
      "art": 7299,
      "પ્રોડક્ટ્સ": 7300,
      "બદલાતી": 7301,
      "જનીન": 7302,
      "જમાવટ": 7303,
      "ગિટાર": 7304,
      "બરફના": 7305,
      "નાઇટ્રો": 7306,
      "નાનકડી": 7307,
      "નફાકારક": 7308,
      "આઇઓટી": 7309,
      "દરિયાકાંઠાના": 7310,
      "mal": 7311,
      "કન્ટ": 7312,
      "ઝર્": 7313,
      "થિંગ્સ": 7314,
      "પ્રદેશોમાં": 7315,
      "કરવાને": 7316,
      "સરવાળા": 7317,
      "થવાથી": 7318,
      "ન્સના": 7319,
      "રાખ્યું": 7320,
      "બંદૂ": 7321,
      "વિચાર્યું": 7322,
      "પરિવહનના": 7323,
      "એરેમાં": 7324,
      "ટ્વિટર": 7325,
      "અકસ્": 7326,
      "હલન": 7327,
      "ેલું": 7328,
      "માસ્ટર": 7329,
      "વાકે": 7330,
      "વાઇડ": 7331,
      "ઉપચાર": 7332,
      "જોડીને": 7333,
      "રેલી": 7334,
      "ક્રિયાવિશેષણ": 7335,
      "સૂચન": 7336,
      "સીઝ": 7337,
      "લોકોમાં": 7338,
      "શબ્દનું": 7339,
      "એનર્જી": 7340,
      "મેળવવામાં": 7341,
      "ખરીદો": 7342,
      "ઘણાં": 7343,
      "રુંવાટી": 7344,
      "ક્ટિવિટી": 7345,
      "ઉદ્યોગના": 7346,
      "ઉપલબ્ધતા": 7347,
      "બદલાતા": 7348,
      "મ્યુઝિકલ": 7349,
      "લીંબુનો": 7350,
      "ડબ્લ્યુ": 7351,
      "અવકાશયાત્રી": 7352,
      "સોડિયમ": 7353,
      "હાવભાવ": 7354,
      "અકસ્મા": 7355,
      "કેબલ": 7356,
      "રોકેટ": 7357,
      "સિને": 7358,
      "લિશ": 7359,
      "શિપિંગ": 7360,
      "પછીની": 7361,
      "સૂચિને": 7362,
      "લેખને": 7363,
      "શિયાર": 7364,
      "end": 7365,
      "કલાકાર": 7366,
      "છોડને": 7367,
      "માંગું": 7368,
      "ફેલાય": 7369,
      "શાળામાં": 7370,
      "દૃશ્યતા": 7371,
      "યુરોપમાં": 7372,
      "બાયોફિઝિ": 7373,
      "વિઝ્યુઅલ્સ": 7374,
      "આમંત્રિત": 7375,
      "ડ્રગ": 7376,
      "મહાસાગરો": 7377,
      "કોંગ્રે": 7378,
      "સબ્સ્ક્રિપ્શન": 7379,
      "પ્રેઝન્ટેશન": 7380,
      "શેક્સપિયર": 7381,
      "જન્મદિવસની": 7382,
      "વાકેફ": 7383,
      "89": 7384,
      "અસંગત": 7385,
      "સસ": 7386,
      "ાનિક": 7387,
      "ન્જર": 7388,
      "મોહક": 7389,
      "લ્મોન": 7390,
      "પુષ્ટિ": 7391,
      "મનોમંથન": 7392,
      "વાર્તાનો": 7393,
      "બનવામાં": 7394,
      "આનંદપ્રદ": 7395,
      "વિકાસશીલ": 7396,
      "ગોઠવણી": 7397,
      "નોકરીના": 7398,
      "પરિસ્થિતિઓમાં": 7399,
      "કંઈપણ": 7400,
      "સાંભળવા": 7401,
      "બોલને": 7402,
      "ઝરમર": 7403,
      "સ્ટ્રોક": 7404,
      "બહાદુ": 7405,
      "દાયકાના": 7406,
      "સાંભળવું": 7407,
      "પાર્ટીમાં": 7408,
      "ટૂલ્સનો": 7409,
      "ડાઉનલોડ": 7410,
      "મૌખિક": 7411,
      "કિસ્સાઓમાં": 7412,
      "ઘોષણાત્મક": 7413,
      "સાર્વત્રિક": 7414,
      "વિજેતા": 7415,
      "36": 7416,
      "ber": 7417,
      "person": 7418,
      "આદુ": 7419,
      "એલ્": 7420,
      "જર્ન": 7421,
      "ધન": 7422,
      "વિવા": 7423,
      "વેઇટ": 7424,
      "ચેઇન": 7425,
      "સરનામાં": 7426,
      "અનિય": 7427,
      "ડાટ": 7428,
      "ડાબી": 7429,
      "સોદા": 7430,
      "ગોલ": 7431,
      "દીધું": 7432,
      "ક્રિયાપદો": 7433,
      "જ્જન": 7434,
      "ચોખ્": 7435,
      "પ્રેમાળ": 7436,
      "સૂચિબદ્ધ": 7437,
      "લર્નિંગની": 7438,
      "પ્રકાશના": 7439,
      "આધિન": 7440,
      "મેન્ટ્સ": 7441,
      "સમજદાર": 7442,
      "વ્યવસાયમાં": 7443,
      "એટલી": 7444,
      "સફળતાને": 7445,
      "ગુણવત્તાવાળા": 7446,
      "પ્રવૃત્તિને": 7447,
      "શરીરની": 7448,
      "150": 7449,
      "ંચાઇ": 7450,
      "પદ્ધતિઓની": 7451,
      "પાડવાનો": 7452,
      "માઇક્રોસોફ્ટ": 7453,
      "લડત": 7454,
      "પ્રીમ": 7455,
      "બળતરા": 7456,
      "કશુંક": 7457,
      "ગાળે": 7458,
      "આલિંગ": 7459,
      "ઝળ": 7460,
      "ધુનિક": 7461,
      "માપે": 7462,
      "ક્ડ": 7463,
      "ક્વાર્": 7464,
      "પ્રકા": 7465,
      "પાયા": 7466,
      "સેલિ": 7467,
      "પૂછી": 7468,
      "અનધિકૃત": 7469,
      "ખાવા": 7470,
      "પડતું": 7471,
      "રસદાર": 7472,
      "તાપમાને": 7473,
      "પરિવર્તિત": 7474,
      "રાખવાથી": 7475,
      "લખવામાં": 7476,
      "પરિવારના": 7477,
      "ઊંચો": 7478,
      "મશીનોને": 7479,
      "કચરાને": 7480,
      "અવરોધિત": 7481,
      "ચળવળમાં": 7482,
      "વસાહતી": 7483,
      "અત્યાધુનિક": 7484,
      "દક્ષ": 7485,
      "નટ": 7486,
      "૧૧": 7487,
      "સ્લાઇસ": 7488,
      "રાઈ": 7489,
      "રિપબ્લિક": 7490,
      "જ્ઞાનાત્મક": 7491,
      "ટ્રેન્ડ": 7492,
      "ઉચ્ચતમ": 7493,
      "લાભદાયક": 7494,
      "શુક્ર": 7495,
      "ઊંઘની": 7496,
      "મુશ્કેલીઓ": 7497,
      "જરૂરિયાતમં": 7498,
      "બપોરના": 7499,
      "સ્પીચ": 7500,
      "સ્ટાર્ટઅપ": 7501,
      "હજારો": 7502,
      "પ્રજનન": 7503,
      "26": 7504,
      "37": 7505,
      "fer": 7506,
      "આરી": 7507,
      "એડિ": 7508,
      "કડી": 7509,
      "તરો": 7510,
      "દશાં": 7511,
      "ાન": 7512,
      "સ્ક્રે": 7513,
      "કેરે": 7514,
      "સાઇન": 7515,
      "એકઠા": 7516,
      "પાઇલ": 7517,
      "લોજિ": 7518,
      "સુના": 7519,
      "થવાનો": 7520,
      "બાની": 7521,
      "કીબોર્ડ": 7522,
      "ંચો": 7523,
      "સીસ": 7524,
      "દર્શકો": 7525,
      "ફિક્શન": 7526,
      "અભિયાન": 7527,
      "હવાઈ": 7528,
      "પાણીથી": 7529,
      "બંનેમાં": 7530,
      "ટેકનોલોજીમાં": 7531,
      "અસરોનું": 7532,
      "નૈતિકતા": 7533,
      "કન્વર્": 7534,
      "જમીનની": 7535,
      "ચોકસાઇ": 7536,
      "વલણોને": 7537,
      "igh": 7538,
      "બ્રહ્માંડની": 7539,
      "સ્પીડ": 7540,
      "શેરીમાં": 7541,
      "નાનકડા": 7542,
      "પ્રમોશન": 7543,
      "બ્રાઝિલ": 7544,
      "ટિકિટ": 7545,
      "બહાદુરી": 7546,
      "wor": 7547,
      "આદેશ": 7548,
      "ઘણો": 7549,
      "ચડતા": 7550,
      "તારો": 7551,
      "વાણ": 7552,
      "સાઈટ": 7553,
      "સુયોજિત": 7554,
      "યાં": 7555,
      "ગાળો": 7556,
      "હવાને": 7557,
      "સાહસિ": 7558,
      "સોફ્ટવેરનો": 7559,
      "કર્મચારીની": 7560,
      "સંદેશાવ્યવહારને": 7561,
      "ખરીદવાની": 7562,
      "વરસાદના": 7563,
      "કસ્ટમર": 7564,
      "ઇવેન્ટ્સ": 7565,
      "એન્ટિટી": 7566,
      "સજાવટ": 7567,
      "ટાળવું": 7568,
      "ખાતાવહી": 7569,
      "જોડાયેલ": 7570,
      "મિલિયનથી": 7571,
      "નાઇટ્રોજન": 7572,
      "num": 7573,
      "એટી": 7574,
      "પગર": 7575,
      "વટી": 7576,
      "વહા": 7577,
      "વતોને": 7578,
      "શકાતી": 7579,
      "સગ": 7580,
      "નાખી": 7581,
      "સ્વે": 7582,
      "ક્ચર": 7583,
      "પ્રસ્તા": 7584,
      "પ્રશિક્ષિત": 7585,
      "ન્ડે": 7586,
      "જોડવા": 7587,
      "દેવામાં": 7588,
      "છોકરો": 7589,
      "ડોકટ": 7590,
      "દિન": 7591,
      "આરોગ્યની": 7592,
      "તફાવતોને": 7593,
      "જિકલ": 7594,
      "ence": 7595,
      "સંદર્ભો": 7596,
      "વધારામાં": 7597,
      "કામગીરીમાં": 7598,
      "રાંધવામાં": 7599,
      "તણાવને": 7600,
      "નજીકથી": 7601,
      "હાઇકિંગ": 7602,
      "ઉદ્દેશો": 7603,
      "સ્ટ્રીટ": 7604,
      "સેટિંગ્સ": 7605,
      "અટકાવવા": 7606,
      "ગુલાબ": 7607,
      "રિયલ્સ": 7608,
      "વહીવટી": 7609,
      "આયર્ન": 7610,
      "રહેઠાણ": 7611,
      "પોઝિશન": 7612,
      "સ્કેલેબિલીટી": 7613,
      "શ્યામ": 7614,
      "ન્યુટ્રોન": 7615,
      "નિમજ્જન": 7616,
      "ક્વિનોઆ": 7617,
      "આતુર": 7618,
      "છિ": 7619,
      "તેવો": 7620,
      "સ્કા": 7621,
      "ક્લે": 7622,
      "રીંગ": 7623,
      "િત્ર": 7624,
      "સંજ્ા": 7625,
      "વીર": 7626,
      "આપ્યા": 7627,
      "બાષ્": 7628,
      "ટીંગ": 7629,
      "પીસ": 7630,
      "ભૂખ": 7631,
      "રાખવાનું": 7632,
      "સિસ્ટમનું": 7633,
      "પહોંચવાની": 7634,
      "ત્રીજું": 7635,
      "નોંધો": 7636,
      "ગ્રહની": 7637,
      "ાયેલું": 7638,
      "are": 7639,
      "સંતુલ": 7640,
      "વાસ્તવિકતા": 7641,
      "રોગોનું": 7642,
      "height": 7643,
      "સિદ્ધિઓ": 7644,
      "હાઈકુ": 7645,
      "બટરફ્લાય": 7646,
      "કેલ્ક્યુ": 7647,
      "સરહદ": 7648,
      "રક્ષણાત્મક": 7649,
      "ઉત્સુક": 7650,
      "ww": 7651,
      "માથું": 7652,
      "કેળ": 7653,
      "પરસ્પર": 7654,
      "વીમા": 7655,
      "જનરે": 7656,
      "ચ્ચાર": 7657,
      "પ્રાયો": 7658,
      "વર્ણવે": 7659,
      "લોકોનું": 7660,
      "જુલાઈ": 7661,
      "પ્રક્રિયાની": 7662,
      "ગ્રાહકનો": 7663,
      "ફાયદામાં": 7664,
      "બહારના": 7665,
      "ઝેડ": 7666,
      "રીતને": 7667,
      "કુશળતાની": 7668,
      "ક્યારેક": 7669,
      "કાઢ્યું": 7670,
      "લખ્યું": 7671,
      "પ્લેટો": 7672,
      "સરકારે": 7673,
      "ઇલેક્ટ્રિકલ": 7674,
      "ટેબલસ્પૂન": 7675,
      "એમ્પ્લો": 7676,
      "ચુસ્ત": 7677,
      "મેલોડી": 7678,
      "પગરખાં": 7679,
      "તકે": 7680,
      "તથા": 7681,
      "ધારો": 7682,
      "મત્તા": 7683,
      "વગર": 7684,
      "વાઘ": 7685,
      "ટેવો": 7686,
      "સાઇઝ": 7687,
      "સાક્ષર": 7688,
      "રોકી": 7689,
      "લ્ક": 7690,
      "ફાયદાઓનું": 7691,
      "ઘરને": 7692,
      "સંસાધનોનું": 7693,
      "જંગલના": 7694,
      "આર્ટ્સ": 7695,
      "તારાઓની": 7696,
      "ન્યૂયોર્ક": 7697,
      "ઉકેલવા": 7698,
      "સ્પેનિશમાં": 7699,
      "બ્રાઉઝ": 7700,
      "ફરિયાદો": 7701,
      "ઇમિગ્રેશન": 7702,
      "ci": 7703,
      "એઇડ": 7704,
      "ઓહ": 7705,
      "લનું": 7706,
      "સફાઇ": 7707,
      "માફ": 7708,
      "નીંગ": 7709,
      "ટેજ": 7710,
      "સાધારણ": 7711,
      "પાક": 7712,
      "ટાવી": 7713,
      "સિએ": 7714,
      "સિદ્ધ": 7715,
      "સિક્કા": 7716,
      "પીગળ": 7717,
      "મિલક": 7718,
      "સીએનએન": 7719,
      "રાખવાનો": 7720,
      "પ્રાણીને": 7721,
      "પ્રાણીઓમાં": 7722,
      "થોમસ": 7723,
      "વસ્તુઓનું": 7724,
      "શક્તિમાં": 7725,
      "ine": 7726,
      "શીખવવા": 7727,
      "દૂરથી": 7728,
      "વિકાસના": 7729,
      "સાધનોનો": 7730,
      "જાણીતો": 7731,
      "મુદ્દાઓનો": 7732,
      "શાંતિથી": 7733,
      "પાછળના": 7734,
      "બર્ગર": 7735,
      "પદાર્થોને": 7736,
      "વાયુઓના": 7737,
      "કોષ્ટકમાં": 7738,
      "પ્રવાહો": 7739,
      "રેફ્રિજરેટર": 7740,
      "પક્ષપાતી": 7741,
      "39": 7742,
      "41": 7743,
      "અધિકૃત": 7744,
      "ઉન્ન": 7745,
      "ઊભો": 7746,
      "ઊભું": 7747,
      "ઓટ": 7748,
      "દમન": 7749,
      "વનો": 7750,
      "શસ્ત્રો": 7751,
      "માયાળુ": 7752,
      "સંજો": 7753,
      "કારમાં": 7754,
      "વર્ગોમાં": 7755,
      "ખાતર": 7756,
      "બોના": 7757,
      "અનુસરવા": 7758,
      "વાક્યમાંથી": 7759,
      "બંધન": 7760,
      "બિલિટી": 7761,
      "વચ્ચેનું": 7762,
      "ઓળખવાની": 7763,
      "ગતિને": 7764,
      "લર્નિંગમાં": 7765,
      "વિચારવાની": 7766,
      "કોડની": 7767,
      "મીડિયાના": 7768,
      "બાળપણ": 7769,
      "પ્રેરક": 7770,
      "ચલાવવામાં": 7771,
      "સ્પેન": 7772,
      "પર્પઝ": 7773,
      "નારાઓ": 7774,
      "લક્ષણોમાં": 7775,
      "અંગેના": 7776,
      "ધૂળ": 7777,
      "log": 7778,
      "ટ્રાન્સફર": 7779,
      "હુમલો": 7780,
      "એવરેસ્ટ": 7781,
      "જળવાયુ": 7782,
      "છિદ્ર": 7783,
      "Th": 7784,
      "fe": 7785,
      "gr": 7786,
      "આંગ": 7787,
      "થઇ": 7788,
      "યત": 7789,
      "હરી": 7790,
      "હથિય": 7791,
      "સાકાર": 7792,
      "કોમાં": 7793,
      "કાલીન": 7794,
      "જોવી": 7795,
      "શોધની": 7796,
      "રિન": 7797,
      "દીધો": 7798,
      "દેડકા": 7799,
      "સેવાઓનો": 7800,
      "વિશ્લેષણો": 7801,
      "પ્રોગ્રામમાં": 7802,
      "બુદ્ધિમત્તા": 7803,
      "બાળકને": 7804,
      "પરિણામોનું": 7805,
      "પ્રોજેક્ટને": 7806,
      "પૂરક": 7807,
      "સંદર્ભને": 7808,
      "દૃશ્યમાન": 7809,
      "પ્રિન્ટિંગ": 7810,
      "રોગોના": 7811,
      "બંધારણમાં": 7812,
      "એન્ટ્રી": 7813,
      "નહોતું": 7814,
      "મૌન": 7815,
      "ભ્રમણકક્ષા": 7816,
      "પરિણમે": 7817,
      "વિશ્લેષણાત્મક": 7818,
      "ઓરે": 7819,
      "કિત": 7820,
      "શ્રો": 7821,
      "ૂપ": 7822,
      "વાપર": 7823,
      "રાફ": 7824,
      "કોચ": 7825,
      "સેપ્ટ": 7826,
      "બોલી": 7827,
      "ડોના": 7828,
      "સર્વો": 7829,
      "ફાયદાની": 7830,
      "195": 7831,
      "2018": 7832,
      "ઇન્ક": 7833,
      "યાદીમાં": 7834,
      "ગ્રહને": 7835,
      "ટૂંકો": 7836,
      "પલંગ": 7837,
      "સપાટીના": 7838,
      "બતાવો": 7839,
      "જવાબદારીઓ": 7840,
      "ફ્લોર": 7841,
      "ફેરફારોને": 7842,
      "સુધારેલા": 7843,
      "ટ્યુબ": 7844,
      "બાઉલ": 7845,
      "આલ્કો": 7846,
      "પેકેજ": 7847,
      "નિષ્ણાતો": 7848,
      "પુરુષો": 7849,
      "અતિશય": 7850,
      "2000": 7851,
      "તના": 7852,
      "વ્સ": 7853,
      "સ્મૂ": 7854,
      "પામે": 7855,
      "નિર": 7856,
      "દાદી": 7857,
      "ઉપયોગથી": 7858,
      "મોર": 7859,
      "સેવામાં": 7860,
      "શોભ": 7861,
      "રિપોર્ટ": 7862,
      "કોઈના": 7863,
      "સીધો": 7864,
      "શિખર": 7865,
      "ચાલતો": 7866,
      "મોડેલના": 7867,
      "થાકી": 7868,
      "વિકાસની": 7869,
      "સાદાર": 7870,
      "ઘટાડવાના": 7871,
      "ફીચર": 7872,
      "ઝેરી": 7873,
      "કાળમાં": 7874,
      "પકડવા": 7875,
      "ભેજવા": 7876,
      "જાહેરમાં": 7877,
      "ખરીદીના": 7878,
      "પ્રદૂષણના": 7879,
      "ઇતિહાસની": 7880,
      "પ્રણાલીને": 7881,
      "આકારણી": 7882,
      "મિશ્રણને": 7883,
      "નેટવર્કની": 7884,
      "શબ્દસમૂહને": 7885,
      "વહેંચણી": 7886,
      "ઉદ્ભ": 7887,
      "સભ્યોને": 7888,
      "જૂથોમાં": 7889,
      "એસિડિ": 7890,
      "પંજા": 7891,
      "આર્ટવર્ક": 7892,
      "સાંકળ": 7893,
      "સૃષ્ટિ": 7894,
      "વ્યાવસાયિકો": 7895,
      "હસ્તક્ષેપ": 7896,
      "કાપેલા": 7897,
      "350": 7898,
      "ping": 7899,
      "ગ્યુ": 7900,
      "ડૉ": 7901,
      "પત્": 7902,
      "બળા": 7903,
      "વની": 7904,
      "સસલા": 7905,
      "હત્યા": 7906,
      "િક્યુ": 7907,
      "દાનો": 7908,
      "ષ્ટિક": 7909,
      "દુશ્": 7910,
      "મ્પે": 7911,
      "એઆર": 7912,
      "મંદી": 7913,
      "સેવાઓને": 7914,
      "અલ્ટ": 7915,
      "જ્ઞાનની": 7916,
      "લાકડા": 7917,
      "પહોંચ્યા": 7918,
      "ખીલે": 7919,
      "કોડમાં": 7920,
      "રાષ્ટ્રો": 7921,
      "ભારતની": 7922,
      "બતાવવા": 7923,
      "ક્લબ": 7924,
      "કમ્પ્યુટર્સને": 7925,
      "વિક્ષેપિત": 7926,
      "પોર્ટેબલ": 7927,
      "ડુક્કર": 7928,
      "સંભવત": 7929,
      "પૌષ્ટિક": 7930,
      "ડેટાબેસેસ": 7931,
      "અદૃશ્ય": 7932,
      "ખભા": 7933,
      "ડકો": 7934,
      "દિક": 7935,
      "લઇ": 7936,
      "જોઇ": 7937,
      "જોઉં": 7938,
      "સમાધા": 7939,
      "તેનાં": 7940,
      "ગામી": 7941,
      "સમયગાળો": 7942,
      "સૂચવવા": 7943,
      "પ્રતિકૂ": 7944,
      "સેવાઓના": 7945,
      "ચર્યા": 7946,
      "પાણીનું": 7947,
      "190": 7948,
      "ઊંડો": 7949,
      "ઝેક્શન": 7950,
      "વિતાવે": 7951,
      "ઇમેજિંગ": 7952,
      "પગલાંની": 7953,
      "સંદેશાવ્યવહારની": 7954,
      "જાદુગર": 7955,
      "પ્લાસ્ટિકનો": 7956,
      "આરોગ્યસંભાળમાં": 7957,
      "મહેનતુ": 7958,
      "સંયોજનનો": 7959,
      "લવચિક": 7960,
      "ડેવલપર": 7961,
      "નાણાંની": 7962,
      "પ્રતિબંધિત": 7963,
      "છાપવા": 7964,
      "હિંસા": 7965,
      "દિનચર્યા": 7966,
      "per": 7967,
      "ઇમર": 7968,
      "એપોઇન્ટ": 7969,
      "ઓવન": 7970,
      "સ્કિ": 7971,
      "મેય": 7972,
      "િયન્સ": 7973,
      "ટાયર": 7974,
      "વધતો": 7975,
      "સમિ": 7976,
      "જોડવામાં": 7977,
      "સુશોભ": 7978,
      "અનપ્લગ": 7979,
      "વ્યવસ્થાપિત": 7980,
      "નિયર": 7981,
      "માણવા": 7982,
      "પનીર": 7983,
      "રંગનો": 7984,
      "સંખ્યાઓના": 7985,
      "માઇક": 7986,
      "વિચારવા": 7987,
      "શહેરનું": 7988,
      "આઇપી": 7989,
      "પરિસ્થિતિઓને": 7990,
      "પોસ્ટર": 7991,
      "તકનીકોમાં": 7992,
      "ડેટાબેઝમાં": 7993,
      "વિરોધાભાસી": 7994,
      "ત્રિકોણની": 7995,
      "કારકિર્દીની": 7996,
      "ચુકવણીની": 7997,
      "એનાલિસિસ": 7998,
      "ફાળવણી": 7999,
      "બજારોમાં": 8000,
      "ક્લીનર": 8001,
      "પ્રસારિત": 8002,
      "ઘડિયાળ": 8003,
      "ફિલસૂફી": 8004,
      "નાજુક": 8005,
      "કનેક્ટેડ": 8006,
      "લક્ઝ": 8007,
      "દંતકથા": 8008,
      "38": 8009,
      "no": 8010,
      "અગત": 8011,
      "થર્મ": 8012,
      "નર્સ": 8013,
      "ુર": 8014,
      "૩૦": 8015,
      "સ્લે": 8016,
      "ટેપ": 8017,
      "ટેસ્લા": 8018,
      "િયલ": 8019,
      "રોમ": 8020,
      "ઉપમા": 8021,
      "મોડું": 8022,
      "ટીપાં": 8023,
      "દ્રશ્યો": 8024,
      "તુર્": 8025,
      "પડતો": 8026,
      "સ્ટેડ": 8027,
      "કમ્પ્યુટરની": 8028,
      "સુધારવાની": 8029,
      "વેબસાઇટમાં": 8030,
      "___": 8031,
      "એમએસ": 8032,
      "વસ્તીના": 8033,
      "સંદેશાવ્યવહારમાં": 8034,
      "જેટલી": 8035,
      "step": 8036,
      "કાઉન્ટર": 8037,
      "લખાણનું": 8038,
      "સમીકરણને": 8039,
      "કદમાં": 8040,
      "મૂલ્યોની": 8041,
      "શિકાગો": 8042,
      "સર્વનામ": 8043,
      "કોલેજ": 8044,
      "શાખાઓ": 8045,
      "કોન્ફરન્સ": 8046,
      "ફેડરલ": 8047,
      "નર્વસ": 8048,
      "ize": 8049,
      "એપ્રિલ": 8050,
      "અગત્ય": 8051,
      "78": 8052,
      "call": 8053,
      "ગયેલા": 8054,
      "છરી": 8055,
      "ભટક": 8056,
      "રીય": 8057,
      "રાક્ષ": 8058,
      "એકમો": 8059,
      "સેદારો": 8060,
      "સરિ": 8061,
      "બાં": 8062,
      "ફેમિલી": 8063,
      "સંબંધને": 8064,
      "ઉત્પાદનોને": 8065,
      "પૂરતો": 8066,
      "હાથથી": 8067,
      "મોડેલોને": 8068,
      "પાંખ": 8069,
      "ટ્યુટો": 8070,
      "કારકિર્દીના": 8071,
      "ઠંડક": 8072,
      "પેઢીઓ": 8073,
      "હિસ્સેદારો": 8074,
      "માધ્યમો": 8075,
      "ફરિયાદ": 8076,
      "boxing": 8077,
      "વિસ્ફોટ": 8078,
      "અધ્યય": 8079,
      "કવર": 8080,
      "ખડક": 8081,
      "દળ": 8082,
      "લખે": 8083,
      "આપણું": 8084,
      "રોટ": 8085,
      "દાવો": 8086,
      "રૂમમાં": 8087,
      "પેટી": 8088,
      "માર્શલ": 8089,
      "અંશ": 8090,
      "લર્નિંગના": 8091,
      "અભિપ્રાયો": 8092,
      "ત્રીજો": 8093,
      "માનવતા": 8094,
      "એપ્લિકેશનની": 8095,
      "પસંદગીઓને": 8096,
      "સ્ટેટ્સની": 8097,
      "અભાવને": 8098,
      "સમુદાયમાં": 8099,
      "પ્રામાણિકતા": 8100,
      "જંતુઓ": 8101,
      "માપદંડો": 8102,
      "ગુનાહિત": 8103,
      "સૂચિતાર્": 8104,
      "કિંગડમ": 8105,
      "રક્તવાહિની": 8106,
      "રેઝ્યૂ": 8107,
      "અજાણી": 8108,
      "અટકી": 8109,
      "અસાધારણ": 8110,
      "આવાસ": 8111,
      "ઇસ્ટ": 8112,
      "ઘર્": 8113,
      "નીચલા": 8114,
      "રાણી": 8115,
      "મેજર": 8116,
      "લોર્ડ": 8117,
      "સમજો": 8118,
      "સેલ્ફ": 8119,
      "શેલ": 8120,
      "પોટે": 8121,
      "રણમાં": 8122,
      "રિમાઇન્ડ": 8123,
      "ફરક": 8124,
      "દિલ": 8125,
      "વ્યાપારી": 8126,
      "ભર્યું": 8127,
      "અસરકારકતા": 8128,
      "સ્તરના": 8129,
      "પિરા": 8130,
      "શક્યતાઓ": 8131,
      "નોકરીદા": 8132,
      "કલાકારો": 8133,
      "ચલાવો": 8134,
      "યુદ્ધની": 8135,
      "બદલવાની": 8136,
      "રસોડું": 8137,
      "નદીઓ": 8138,
      "સહિતની": 8139,
      "મનુષ્યને": 8140,
      "દાયકાની": 8141,
      "deep": 8142,
      "ફોટોગ્રાફી": 8143,
      "અપનાવવા": 8144,
      "સ્પિન": 8145,
      "પારદર્શિ": 8146,
      "વૂડ્સ": 8147,
      "શસ્ત્ર": 8148,
      "મેગ્નેટિક": 8149,
      "સરિસૃપ": 8150,
      "3D": 8151,
      "44": 8152,
      "અટ": 8153,
      "અવે": 8154,
      "અસ્થિર": 8155,
      "અમારો": 8156,
      "વાંદ": 8157,
      "થીમ્સ": 8158,
      "કાતર": 8159,
      "ખોલો": 8160,
      "બોલે": 8161,
      "ડોને": 8162,
      "ડોમેન": 8163,
      "જવાનો": 8164,
      "ચાલ્યો": 8165,
      "જીવનનું": 8166,
      "છાપો": 8167,
      "અલગોરિધ": 8168,
      "મોડેલનું": 8169,
      "સંશોધનમાં": 8170,
      "રમતનું": 8171,
      "ore": 8172,
      "દાયી": 8173,
      "મુસાફરીની": 8174,
      "વાંચવું": 8175,
      "stand": 8176,
      "પોસ્ટ્સ": 8177,
      "સૂચનાઓનો": 8178,
      "ગાળામાં": 8179,
      "આઈડી": 8180,
      "સરકારના": 8181,
      "ગમેન્ટેડ": 8182,
      "વિશેષણોની": 8183,
      "માર્ગદર્શક": 8184,
      "અરજ": 8185,
      "એકાઉન્ટ્સ": 8186,
      "રેડવું": 8187,
      "...": 8188,
      "કેન્યો": 8189,
      "ગાંધી": 8190,
      "તળિયે": 8191,
      "તાકીદ": 8192,
      "જુલિયટ": 8193,
      "પ્રકાશન": 8194,
      "દશાંશ": 8195,
      "ઘર્ષણ": 8196,
      "આવું": 8197,
      "આદેશો": 8198,
      "કચું": 8199,
      "ઠરા": 8200,
      "પસ": 8201,
      "બત્": 8202,
      "વરા": 8203,
      "નીચી": 8204,
      "રોકાયેલા": 8205,
      "તોડવા": 8206,
      "લિસા": 8207,
      "પીસે": 8208,
      "ધાબળા": 8209,
      "કરણની": 8210,
      "રંગનું": 8211,
      "શીખવી": 8212,
      "શીખવાનું": 8213,
      "સામગ્રીનું": 8214,
      "ઉત્પાદનનો": 8215,
      "માર્ગને": 8216,
      "બીજાને": 8217,
      "પારિ": 8218,
      "ધોધ": 8219,
      "રીતનું": 8220,
      "પકડે": 8221,
      "જાણું": 8222,
      "પ્રોજેક્ટની": 8223,
      "ખેંચા": 8224,
      "ચલાવી": 8225,
      "કેટલીકવાર": 8226,
      "નકશા": 8227,
      "પ્રેમની": 8228,
      "નુકસાનને": 8229,
      "કામગીરીની": 8230,
      "લખાણના": 8231,
      "પુસ્તકનું": 8232,
      "પ્રજાતિઓના": 8233,
      "પાડવાની": 8234,
      "આદરણીય": 8235,
      "ગણિતની": 8236,
      "પ્રતિબિંબ": 8237,
      "રોગચાળાને": 8238,
      "મોકલે": 8239,
      "કાચબા": 8240,
      "વાચકોને": 8241,
      "માલિકો": 8242,
      "મૂળાક્ષરોના": 8243,
      "કચુંબર": 8244,
      "high": 8245,
      "sort": 8246,
      "અજ્ઞા": 8247,
      "ઉચ્ચાર": 8248,
      "પટ્ટા": 8249,
      "ર્ય": 8250,
      "સનો": 8251,
      "ાનાત્મક": 8252,
      "માવ": 8253,
      "કાપણી": 8254,
      "રોન": 8255,
      "નિકાલ": 8256,
      "દાંડી": 8257,
      "પેંગ્": 8258,
      "શોધનો": 8259,
      "જૂનું": 8260,
      "વારસો": 8261,
      "ધારા": 8262,
      "એનસી": 8263,
      "પ્રકાશનો": 8264,
      "બધાં": 8265,
      "પુસ્તકની": 8266,
      "લાઇન્સ": 8267,
      "માર્કેટિંગમાં": 8268,
      "જમીનને": 8269,
      "સવાલ": 8270,
      "વર્તણૂકને": 8271,
      "ડકાસ્ટ": 8272,
      "ચાંદી": 8273,
      "ઇરાદા": 8274,
      "ચિકિત્સ": 8275,
      "ogn": 8276,
      "પ્રસ્તાવ": 8277,
      "put": 8278,
      "ંટર": 8279,
      "અમૂલ્ય": 8280,
      "ઇચ્": 8281,
      "ઈન્": 8282,
      "ખગોળ": 8283,
      "શથી": 8284,
      "સભાન": 8285,
      "સ્લિ": 8286,
      "રાઇઝ": 8287,
      "કોલો": 8288,
      "ન્જ": 8289,
      "જાઉં": 8290,
      "મુગ્ધ": 8291,
      "ડિટેક્": 8292,
      "દીર્": 8293,
      "કાર્યરત": 8294,
      "વારિક": 8295,
      "ક્સની": 8296,
      "ઉત્પાદિત": 8297,
      "કંપ": 8298,
      "સ્ટોન": 8299,
      "ાંકી": 8300,
      "બનવાનું": 8301,
      "ંડર": 8302,
      "વર્કફ્લો": 8303,
      "ફૂં": 8304,
      "મહિને": 8305,
      "સમીકરણો": 8306,
      "આશાવાદી": 8307,
      "વોર્મિંગની": 8308,
      "તફાવતોનું": 8309,
      "અવરોધોને": 8310,
      "સંકલિત": 8311,
      "ગૌણ": 8312,
      "ન્યુક્લિયસ": 8313,
      "પારિવારિક": 8314,
      "AP": 8315,
      "ist": 8316,
      "ઝબ": 8317,
      "ડ્રી": 8318,
      "ઢો": 8319,
      "દરો": 8320,
      "માગે": 8321,
      "પ્રમેય": 8322,
      "કોર્ન": 8323,
      "લોય": 8324,
      "જીવે": 8325,
      "ચેપી": 8326,
      "પોશાક": 8327,
      "સિલિ": 8328,
      "પેલે": 8329,
      "હાડ": 8330,
      "અસરની": 8331,
      "વપરાશકર્તાઓની": 8332,
      "માહિતીપ્રદ": 8333,
      "સાહસની": 8334,
      "શક્તિની": 8335,
      "સંભવિતતા": 8336,
      "પહેલો": 8337,
      "વાસણો": 8338,
      "ઊંડે": 8339,
      "સુવિધાઓને": 8340,
      "વ્યૂહરચનાનો": 8341,
      "વસ્તીમાં": 8342,
      "ફેલાવવા": 8343,
      "મિશ્રિત": 8344,
      "સહાયકને": 8345,
      "કંપનીઓએ": 8346,
      "સાંભળવાની": 8347,
      "અર્થતંત્રને": 8348,
      "પાલક": 8349,
      "સંગઠનો": 8350,
      "સ્વયંસેવ": 8351,
      "વોલ્યુમ": 8352,
      "પ્રગતિઓ": 8353,
      "નુષ્યો": 8354,
      "લક્ઝરી": 8355,
      "up": 8356,
      "આળ": 8357,
      "આયા": 8358,
      "ચલન": 8359,
      "ડલ્સ": 8360,
      "પતંગ": 8361,
      "ભવન": 8362,
      "વગાડ": 8363,
      "માસ": 8364,
      "કેરો": 8365,
      "જોર્ડ": 8366,
      "રેપ": 8367,
      "છોકરા": 8368,
      "આવતું": 8369,
      "પ્રાણીનું": 8370,
      "વાર્તાને": 8371,
      "શકશો": 8372,
      "કલર": 8373,
      "વાતાવરણનું": 8374,
      "ઘટનાનું": 8375,
      "સ્કોટ": 8376,
      "બ્રુ": 8377,
      "મૂલ્યોને": 8378,
      "_____": 8379,
      "સોંપો": 8380,
      "બગીંગ": 8381,
      "વિટામિન્સ": 8382,
      "ડોલ્ફિન": 8383,
      "રિલેશનલ": 8384,
      "હલનચલન": 8385,
      "ઉગે": 8386,
      "ઝગમ": 8387,
      "ભસ": 8388,
      "વાયા": 8389,
      "પ્રમુખ": 8390,
      "કાશી": 8391,
      "મેની": 8392,
      "મેદાનો": 8393,
      "ટોપિંગ": 8394,
      "સર્વિ": 8395,
      "ફરતી": 8396,
      "નિર્દોષ": 8397,
      "સેવાનો": 8398,
      "વાર્તાના": 8399,
      "વિદ્યાર્થીને": 8400,
      "પરિવર્તનનો": 8401,
      "તકનીકીમાં": 8402,
      "દર્શાવતી": 8403,
      "પરિણામોમાં": 8404,
      "રાતનું": 8405,
      "પ્રતિસાદને": 8406,
      "રાખીએ": 8407,
      "સહયોગને": 8408,
      "વિકલ્પોની": 8409,
      "મેનૂ": 8410,
      "રાષ્ટ્રપતિની": 8411,
      "પેનલ્સ": 8412,
      "મેન્યુફે": 8413,
      "આફ્રિકામાં": 8414,
      "play": 8415,
      "ફ્રાય": 8416,
      "પાર્ટમેન્ટ": 8417,
      "લક્ષ્યાંકો": 8418,
      "રાઉટર": 8419,
      "ઉન્નત": 8420,
      "h1": 8421,
      "kn": 8422,
      "ઉછે": 8423,
      "ખળ": 8424,
      "જગાડ": 8425,
      "લન્સ": 8426,
      "લડવા": 8427,
      "વરહે": 8428,
      "પ્રધાન": 8429,
      "લાદ": 8430,
      "સંકુ": 8431,
      "કાસ્ટ": 8432,
      "ટાસ્ક": 8433,
      "સ્ટુ": 8434,
      "દેશ્ય": 8435,
      "મિટો": 8436,
      "કાર્યની": 8437,
      "ફોર્ડ": 8438,
      "વારસા": 8439,
      "માર્ચ": 8440,
      "ચાલવું": 8441,
      "અનુભવું": 8442,
      "અનુભવનું": 8443,
      "આગળની": 8444,
      "પહોંચો": 8445,
      "જોડાવાની": 8446,
      "વ્યવહારુ": 8447,
      "મિનિટો": 8448,
      "શરૂઆતથી": 8449,
      "આકારમાં": 8450,
      "ચંદ્રની": 8451,
      "રાજ્યના": 8452,
      "ઇકોનો": 8453,
      "ધરખમ": 8454,
      "ઉદ્દેશ્ય": 8455,
      "વાયુઓ": 8456,
      "ઇંધણના": 8457,
      "સ્રોતોમાંથી": 8458,
      "છૂટા": 8459,
      "મેસેજિંગ": 8460,
      "સપનાને": 8461,
      "પડોશી": 8462,
      "મંત્રમુગ્ધ": 8463,
      "->": 8464,
      "ઇડી": 8465,
      "ઝને": 8466,
      "ઝિક્યુ": 8467,
      "મનુષ્યો": 8468,
      "શણ": 8469,
      "વાંચે": 8470,
      "કાંગ": 8471,
      "પરનું": 8472,
      "મેઈલ": 8473,
      "ત્તર": 8474,
      "લેન": 8475,
      "પણું": 8476,
      "ડિસે": 8477,
      "ડિબગીંગ": 8478,
      "સીને": 8479,
      "ષ્ક": 8480,
      "આવૃ": 8481,
      "જિરાફ": 8482,
      "પહેલી": 8483,
      "ફેરન": 8484,
      "ચિપ": 8485,
      "સામગ્રીમાં": 8486,
      "મળતી": 8487,
      "કેન્દ્રમાં": 8488,
      "દૃઢ": 8489,
      "જોડાઈ": 8490,
      "રીતમાં": 8491,
      "સંદેશાઓ": 8492,
      "મુસાફરીના": 8493,
      "તેણીની": 8494,
      "શુષ્ક": 8495,
      "પરિવારને": 8496,
      "અંગેની": 8497,
      "સ્ટ્રક્ચર્સ": 8498,
      "ફોટોગ્રાફ": 8499,
      "એક્ઝિક્યુ": 8500,
      "સ્થળોની": 8501,
      "તકનીકનું": 8502,
      "સેટિંગમાં": 8503,
      "દસ્તાવેજીકરણ": 8504,
      "અહેસાસ": 8505,
      "કમ્પોસ્ટ": 8506,
      "સંગઠનાત્મક": 8507,
      "અઠવાડિયામાં": 8508,
      "પ્રમોશનલ": 8509,
      "ઇજનેરી": 8510,
      "માધ્યમ": 8511,
      "ધોવાણ": 8512,
      "પરિવારો": 8513,
      "ચ્છેદન": 8514,
      "રીમાઇન્ડર્સ": 8515,
      "ustom": 8516,
      "av": 8517,
      "ure": 8518,
      "ટર્ન": 8519,
      "ધરી": 8520,
      "બાર્": 8521,
      "નેશન્સ": 8522,
      "કોન": 8523,
      "ત્તમ": 8524,
      "રેઇન": 8525,
      "સુખી": 8526,
      "કરેલું": 8527,
      "શેષ": 8528,
      "બેંગ": 8529,
      "હીન": 8530,
      "યુરો": 8531,
      "ષ્ણ": 8532,
      "ફાઇન": 8533,
      "બિલ્ટ": 8534,
      "ફરતા": 8535,
      "ફર્યો": 8536,
      "નિર્દેશ": 8537,
      "અભિયા": 8538,
      "બન્યો": 8539,
      "દિવસનો": 8540,
      "પ્રકાશમાં": 8541,
      "ઇન્સ્ટા": 8542,
      "કિંગબર્ડ": 8543,
      "કાઢ્યા": 8544,
      "પગલાંનો": 8545,
      "શેરિંગ": 8546,
      "કર્મચારીઓની": 8547,
      "પૂરતું": 8548,
      "આહારના": 8549,
      "કામગીરીનું": 8550,
      "આંદો": 8551,
      "ત્રિકોણના": 8552,
      "અર્થતંત્રમાં": 8553,
      "rom": 8554,
      "રોબોટ્સનો": 8555,
      "ડેટાસેટમાં": 8556,
      "તોફાન": 8557,
      "બપોરનું": 8558,
      "ample": 8559,
      "સાતત્ય": 8560,
      "મૂડીવાદ": 8561,
      "સોંપવામાં": 8562,
      "ડેમોક્રે": 8563,
      "એટેક": 8564,
      "જમણી": 8565,
      "થિયે": 8566,
      "૧૮": 8567,
      "સ્ટાઇ": 8568,
      "માટેનાં": 8569,
      "સંધિ": 8570,
      "ત્તિઓ": 8571,
      "ટાઉન": 8572,
      "ટાંકો": 8573,
      "વધ્યો": 8574,
      "અનૌ": 8575,
      "મિથે": 8576,
      "વર્ણનો": 8577,
      "ફોક્સ": 8578,
      "છાં": 8579,
      "ક્ષમતાનો": 8580,
      "માહિતીનું": 8581,
      "રૂપમાં": 8582,
      "લેખિત": 8583,
      "મરચાં": 8584,
      "એન્ઝા": 8585,
      "સાધનોની": 8586,
      "યાદીમાંથી": 8587,
      "વિષયક": 8588,
      "ક્લાયં": 8589,
      "eng": 8590,
      "શૈલીઓ": 8591,
      "સંભાવનાને": 8592,
      "ભીના": 8593,
      "એકબીજાની": 8594,
      "ઓબ્જેક્ટ્સને": 8595,
      "રોબોટને": 8596,
      "ઊંડાણ": 8597,
      "લાયકાતો": 8598,
      "del": 8599,
      "ઉનાળામાં": 8600,
      "ચમકતી": 8601,
      "માઇક્રોસ": 8602,
      "ઝીંગા": 8603,
      "સીમાચિહ્નો": 8604,
      "સર્વેક્ષણો": 8605,
      "તૂટે": 8606,
      "ટ્રીપ": 8607,
      "ઓફિસમાં": 8608,
      "ચૂકી": 8609,
      "ભઠ્ઠીને": 8610,
      "વેન્ચર": 8611,
      "પ્રગટ": 8612,
      "મહત્વાકાંક્ષી": 8613,
      "ધબકારા": 8614,
      "મુસાફરો": 8615,
      "ઝળહ": 8616,
      "ક્ચરિંગ": 8617,
      "300": 8618,
      "St": 8619,
      "qu": 8620,
      "એફિલ": 8621,
      "ઓગમેન્ટેડ": 8622,
      "રક": 8623,
      "નોર્": 8624,
      "હેમ્": 8625,
      "ઉપયોગિ": 8626,
      "સ્ટ્સ": 8627,
      "ચેસ": 8628,
      "ન્ટો": 8629,
      "ડીશ": 8630,
      "કીલ": 8631,
      "ડિસ્ટ": 8632,
      "અનુસરો": 8633,
      "સૌપ્રથમ": 8634,
      "ફોન્સ": 8635,
      "ફિશિંગ": 8636,
      "ત્યજી": 8637,
      "ગતિએ": 8638,
      "કલ્યા": 8639,
      "મોડેલમાં": 8640,
      "અભિનેતા": 8641,
      "બનાવતી": 8642,
      "તફાવતનું": 8643,
      "લાગણીને": 8644,
      "છોડની": 8645,
      "વસ્તીની": 8646,
      "લખવું": 8647,
      "રૂપાંતર": 8648,
      "સ્વાસ્થ્યમાં": 8649,
      "હૃદયરોગ": 8650,
      "રાંધણક": 8651,
      "સંગીતકાર": 8652,
      "પ્રકૃતિમાં": 8653,
      "પાડવો": 8654,
      "વિભાવનાને": 8655,
      "ગિફ્ટ": 8656,
      "સીમાઓ": 8657,
      "ભાગોને": 8658,
      "મોટાભાગની": 8659,
      "મહિનાઓ": 8660,
      "સુગંધિત": 8661,
      "ટેકનિકલ": 8662,
      "ચુકા": 8663,
      "હિસ્સો": 8664,
      "લોયલ્ટી": 8665,
      "મેન્યુફેક્ચરિંગ": 8666,
      "અનૌપચારિક": 8667,
      "ld": 8668,
      "ંઘા": 8669,
      "અવિ": 8670,
      "ઔંસ": 8671,
      "જમ્પ": 8672,
      "થતું": 8673,
      "ધૈ": 8674,
      "ન્યા": 8675,
      "નકારી": 8676,
      "બર્ન": 8677,
      "્રલ": 8678,
      "કેલેન્ડર": 8679,
      "રાની": 8680,
      "વીએ": 8681,
      "રોલર": 8682,
      "જીતે": 8683,
      "શેરો": 8684,
      "સિક્વ": 8685,
      "દરમાં": 8686,
      "યુરે": 8687,
      "મિનો": 8688,
      "સર્કિટ": 8689,
      "સ્વભાવ": 8690,
      "જિજ્ઞા": 8691,
      "કાર્યોનો": 8692,
      "197": 8693,
      "પર્યાપ્ત": 8694,
      "ઉદ્યા": 8695,
      "આઇટી": 8696,
      "બાજુમાં": 8697,
      "કુશળતાનો": 8698,
      "one": 8699,
      "તત્વોના": 8700,
      "સરેરાશની": 8701,
      "ભોજનની": 8702,
      "હૃદયને": 8703,
      "સલામતીના": 8704,
      "રસોઇયા": 8705,
      "ફુગા": 8706,
      "2008": 8707,
      "ઘોંઘા": 8708,
      "એપ્લિકેશન્સમાં": 8709,
      "લાક્ષણિકતાઓની": 8710,
      "અંધકારમાં": 8711,
      "મોકલી": 8712,
      "સવારના": 8713,
      "પ્રોસેસ્ડ": 8714,
      "કિરણોત્સર્ગી": 8715,
      "ફ્રોસ્ટ": 8716,
      "કાર્બોહાઇડ્રે": 8717,
      "age": 8718,
      "શ્રીમંત": 8719,
      "ફ્લિપ": 8720,
      "ગુસ્સે": 8721,
      "રાંધણકળા": 8722,
      "ધૈર્ય": 8723,
      "4x": 8724,
      "Ne": 8725,
      "can": 8726,
      "cre": 8727,
      "ખવડા": 8728,
      "ડગ": 8729,
      "પટલ": 8730,
      "પિયાનો": 8731,
      "ફતે": 8732,
      "યમ": 8733,
      "ક્સે": 8734,
      "વિસંગત": 8735,
      "લોંચ": 8736,
      "શેલ્ફ": 8737,
      "ચામ": 8738,
      "ચાંચ": 8739,
      "ટીમે": 8740,
      "સમાર": 8741,
      "ભૂસ્તર": 8742,
      "ફોલો": 8743,
      "ફિબોના": 8744,
      "ર્સની": 8745,
      "ગ્લે": 8746,
      "સંખ્યાના": 8747,
      "ટૂલ": 8748,
      "માઇનિંગ": 8749,
      "લાઇનો": 8750,
      "શોધીને": 8751,
      "આકર્ષ": 8752,
      "આવશ્યકતાઓ": 8753,
      "ભેજ": 8754,
      "મિત્રોને": 8755,
      "પ્રવૃત્તિમાં": 8756,
      "ચલાવે": 8757,
      "અંદરની": 8758,
      "સ્ત્રોતોના": 8759,
      "કાયદાના": 8760,
      "પરિણામની": 8761,
      "રોગચાળાની": 8762,
      "પાયથોનમાં": 8763,
      "નાખ્યો": 8764,
      "કચરાના": 8765,
      "ill": 8766,
      "કહીએ": 8767,
      "પેરામીટર": 8768,
      "વુડ": 8769,
      "ઉત્તેજિત": 8770,
      "ટર્બાઇન": 8771,
      "++)": 8772,
      "જંતુનાશકો": 8773,
      "સંવાદિ": 8774,
      "આળસુ": 8775,
      "ast": 8776,
      "સસ્પે": 8777,
      "વાવે": 8778,
      "નાળ": 8779,
      "વેટ": 8780,
      "કારિક": 8781,
      "ટાઇડ": 8782,
      "ખાવાના": 8783,
      "શીખો": 8784,
      "દેવું": 8785,
      "જન્ય": 8786,
      "અનુસ": 8787,
      "ફેરી": 8788,
      "લોકોનો": 8789,
      "પ્રતિષ્ઠ": 8790,
      "અલં": 8791,
      "ઝડપે": 8792,
      "એઆઈમાં": 8793,
      "દિવસનું": 8794,
      "કપટ": 8795,
      "વિષયની": 8796,
      "ટીમની": 8797,
      "સ્પેક્ટ": 8798,
      "શિયાળો": 8799,
      "મારફતે": 8800,
      "હૃદયમાં": 8801,
      "પરમાણુઓ": 8802,
      "શહેરોની": 8803,
      "રોકવામાં": 8804,
      "પહોંચાડી": 8805,
      "એડવેન્ચર": 8806,
      "ટૂંકમાં": 8807,
      "ટ્યુરિંગ": 8808,
      "ફકરાને": 8809,
      "દોરવા": 8810,
      "રેન્જ": 8811,
      "વિસ્મય": 8812,
      "ડબલ્યુ": 8813,
      "ટેગલાઇન": 8814,
      "સંબોધિત": 8815,
      "ન્ડ્રોમ": 8816,
      "ફિબોનાકી": 8817,
      "પ્રતિષ્ઠિત": 8818,
      "))": 8819,
      "TP": 8820,
      "ંક્સ": 8821,
      "એક્ટર": 8822,
      "ઑનલાઇન": 8823,
      "જઇ": 8824,
      "તહે": 8825,
      "હંગ": 8826,
      "હરિયા": 8827,
      "સાઈ": 8828,
      "કાઉ": 8829,
      "વેત": 8830,
      "જાતે": 8831,
      "ન્ટિક": 8832,
      "પોડકાસ્ટ": 8833,
      "આવેગ": 8834,
      "આવેલ": 8835,
      "ળાટ": 8836,
      "પીટર": 8837,
      "સીઝન": 8838,
      "રાખવો": 8839,
      "રાખશે": 8840,
      "ચરિત્ર": 8841,
      "સહકાર": 8842,
      "જ્ઞાનનો": 8843,
      "એપ્લિકેશનનું": 8844,
      "સ્પષ્ટપણે": 8845,
      "ગોઠવવામાં": 8846,
      "જ્હોનને": 8847,
      "ટેક્સ્ટના": 8848,
      "ક્યુલર": 8849,
      "શાંતિની": 8850,
      "નિવેદનો": 8851,
      "સમજવાનો": 8852,
      "સંગીતની": 8853,
      "મૂકવો": 8854,
      "રાજ્યને": 8855,
      "ત્રિકોણનું": 8856,
      "વહેંચવામાં": 8857,
      "સર્વેલન્સ": 8858,
      "સેન્ટ્રલ": 8859,
      "એમેઝો": 8860,
      "પેટર્નમાં": 8861,
      "દ્રાક્ષ": 8862,
      "નિર્ભરતા": 8863,
      "રાજકુમાર": 8864,
      "વિન્ડો": 8865,
      "ખજાનો": 8866,
      "અથડા": 8867,
      "54": 8868,
      "56": 8869,
      "king": 8870,
      "ઉકળતા": 8871,
      "ટચ": 8872,
      "થ્રે": 8873,
      "થ્રો": 8874,
      "નવે": 8875,
      "ભળાટ": 8876,
      "રડ": 8877,
      "સાંત": 8878,
      "કાઈ": 8879,
      "વેજિ": 8880,
      "કારણી": 8881,
      "કારપૂ": 8882,
      "રોઝ": 8883,
      "નિષ્ઠા": 8884,
      "નિવૃત્તિ": 8885,
      "બોલો": 8886,
      "વસ્તુનું": 8887,
      "બુધ": 8888,
      "ગતિના": 8889,
      "રાજકારણી": 8890,
      "અભિન્ન": 8891,
      "રાતની": 8892,
      "કાઢવામાં": 8893,
      "અંદરના": 8894,
      "પ્રણાલીનો": 8895,
      "સંરક્ષણના": 8896,
      "opping": 8897,
      "બગીચો": 8898,
      "વોર્મિંગને": 8899,
      "સરખાવો": 8900,
      "પ્રવાહને": 8901,
      "ખૂણામાં": 8902,
      "નિશ્ચયી": 8903,
      "માથાનો": 8904,
      "છુપાયેલી": 8905,
      "ચેમ્પિયનશિપ": 8906,
      "example": 8907,
      "ડાયાબિટીસ": 8908,
      "હથિયારો": 8909,
      "ખળભળાટ": 8910,
      "res": 8911,
      "કદા": 8912,
      "ડિક": 8913,
      "શાર્ક": 8914,
      "નેલ": 8915,
      "માંનું": 8916,
      "કાગ": 8917,
      "મેરે": 8918,
      "હોં": 8919,
      "હેલિ": 8920,
      "મોકિંગબર્ડ": 8921,
      "ખાવું": 8922,
      "ગોડ": 8923,
      "યુટ્યુબ": 8924,
      "વ્યક્તિઓની": 8925,
      "ચીજો": 8926,
      "ર્સનો": 8927,
      "ક્ષમતામાં": 8928,
      "સ્ટેરી": 8929,
      "કાર્યોનું": 8930,
      "લેખના": 8931,
      "રહીને": 8932,
      "વાતાવરણીય": 8933,
      "સેટમાં": 8934,
      "સ્વીકાર્ય": 8935,
      "લાઇવ": 8936,
      "કુશળ": 8937,
      "સંપર્": 8938,
      "કહેવા": 8939,
      "ense": 8940,
      "મુદ્દાઓની": 8941,
      "મિનિટની": 8942,
      "સાંભળીને": 8943,
      "ફોર્મે": 8944,
      "હૃદયના": 8945,
      "માપવામાં": 8946,
      "યુરોપના": 8947,
      "કસ્ટમ": 8948,
      "સ્ટીક": 8949,
      "પ્રોટોન": 8950,
      "થિસિસ": 8951,
      "ગુપ્તચર": 8952,
      "ઉત્સાહપૂર્ણ": 8953,
      "એટલાન્ટિક": 8954,
      "રીમાઇન્ડર": 8955,
      "ષ્ટાચાર": 8956,
      "ધુમ્મસ": 8957,
      "એસેસ": 8958,
      "એબીસી": 8959,
      "કમ્યુનિ": 8960,
      "જાર": 8961,
      "મણા": 8962,
      "િજ્ય": 8963,
      "ીને": 8964,
      "સ્નિ": 8965,
      "નોર્થ": 8966,
      "પ્રસં": 8967,
      "િતો": 8968,
      "કાલય": 8969,
      "વેલો": 8970,
      "મેસ્": 8971,
      "વીન": 8972,
      "પામ": 8973,
      "સેલ્યુ": 8974,
      "પરિમિતિ": 8975,
      "ડિરે": 8976,
      "બોસ્ટન": 8977,
      "કંટ્રો": 8978,
      "શબ્દકો": 8979,
      "જિન": 8980,
      "કલમ": 8981,
      "પુસ્તકાલય": 8982,
      "શહેરને": 8983,
      "પસંદગીની": 8984,
      "ક્લાસ": 8985,
      "ચમકે": 8986,
      "પ્રયાણ": 8987,
      "નારાઓને": 8988,
      "ઉપરના": 8989,
      "વરસાદની": 8990,
      "નિયમોનું": 8991,
      "ફ્રેન્ચમાં": 8992,
      "પાસાઓ": 8993,
      "કબજે": 8994,
      "ટ્રાન્ઝેક્શન": 8995,
      "લાઇસન્સ": 8996,
      "ઓરિએન્": 8997,
      "સસલું": 8998,
      "વાણિજ્ય": 8999,
      "અલ્ટ્રા": 9000,
      "માવજ": 9001,
      "ઉછેર": 9002,
      "એક્ઝિક્યુટિવ": 9003,
      "from": 9004,
      "ખંત": 9005,
      "તમાં": 9006,
      "માપનીય": 9007,
      "પરમે": 9008,
      "મેઇન": 9009,
      "્યાત્": 9010,
      "વધવું": 9011,
      "લિટલ": 9012,
      "સોર્": 9013,
      "ડોક્ટર": 9014,
      "કાર્યનું": 9015,
      "સામય": 9016,
      "ફાયદાઓમાં": 9017,
      "ફીલ્ડ": 9018,
      "પુસ્તકના": 9019,
      "ક્લાસિ": 9020,
      "તફાવતને": 9021,
      "કલાના": 9022,
      "તત્વોનું": 9023,
      "વર્ગના": 9024,
      "પ્રદૂષણની": 9025,
      "સાંજ": 9026,
      "તકોની": 9027,
      "ક્રીમી": 9028,
      "નિયમોનો": 9029,
      "વેચાણની": 9030,
      "અંતરને": 9031,
      "માઇક્રોવેવ": 9032,
      "મ્બલી": 9033,
      "અનુકૂલનશીલ": 9034,
      "તાજગી": 9035,
      "આટલું": 9036,
      "કોર્પોરેટ": 9037,
      "જંગલમાંથી": 9038,
      "ડાયાબિટીઝ": 9039,
      "એસેમ્બલ": 9040,
      "બહેન": 9041,
      "નાયક": 9042,
      "બ્લૂઝ": 9043,
      "નિપુણતા": 9044,
      "જરૂરિયાતમંદ": 9045,
      "લવચિકતા": 9046,
      "જગાડવો": 9047,
      "કાંગાર": 9048,
      "આવૃત્તિ": 9049,
      "અવિરત": 9050,
      "કદાચ": 9051,
      "SE": 9052,
      "br": 9053,
      "custom": 9054,
      "ge": 9055,
      "ડ્યુ": 9056,
      "ટેનિસ": 9057,
      "વિસ્થાપ": 9058,
      "ખોટ": 9059,
      "શોધવી": 9060,
      "રિલીઝ": 9061,
      "દુરૂપ": 9062,
      "માર્ટિન": 9063,
      "છાતી": 9064,
      "ંકિત": 9065,
      "આધ્યાત્": 9066,
      "એન્ક્રિપ્ટ": 9067,
      "વાતાવરણની": 9068,
      "સંશોધનના": 9069,
      "ગ્રહના": 9070,
      "એલાર્": 9071,
      "એલઇડી": 9072,
      "that": 9073,
      "કુશળતામાં": 9074,
      "પ્રશ્નોને": 9075,
      "બિલાડીને": 9076,
      "ગુણવત્તાને": 9077,
      "હૃદયની": 9078,
      "બોર્ડિંગ": 9079,
      "મનુષ્યની": 9080,
      "અક્ષરથી": 9081,
      "સપ્ટે": 9082,
      "વિકાસકર્તાઓ": 9083,
      "કોર્પોરેશન": 9084,
      "અવગણના": 9085,
      "નિવારક": 9086,
      "નૂડલ્સ": 9087,
      "આલિંગન": 9088,
      "ઇમરજન્સી": 9089,
      "દીર્ઘ": 9090,
      "માઇક્રોસફ્ટ": 9091,
      "વાવેતર": 9092,
      "આધ્યાત્મિક": 9093,
      "py": 9094,
      "અલ્પ": 9095,
      "ઇમ્": 9096,
      "ઘૂ": 9097,
      "ઘડી": 9098,
      "હમ્": 9099,
      "કેપ્સ": 9100,
      "ક્લિયો": 9101,
      "નોડ્સ": 9102,
      "કોસ્ટર": 9103,
      "પાકની": 9104,
      "િયામાં": 9105,
      "પેસે": 9106,
      "જનરલ": 9107,
      "પ્રાઇ": 9108,
      "શિસ્ત": 9109,
      "ઓળખાતા": 9110,
      "ગ્રીડ": 9111,
      "મળવા": 9112,
      "સાઇટ્સ": 9113,
      "સમૂહને": 9114,
      "ટેક્સ્ટમાં": 9115,
      "ઘાટન": 9116,
      "પ્રભાવકો": 9117,
      "વધારાનો": 9118,
      "શાળાએ": 9119,
      "સલામતીની": 9120,
      "મહત્ત્વના": 9121,
      "અમેરિકાની": 9122,
      "ધરવા": 9123,
      "વિષયોને": 9124,
      "લેબલ્સ": 9125,
      "તેટલા": 9126,
      "એકાઉન્ટિંગ": 9127,
      "ભૂલશો": 9128,
      "નંબરોની": 9129,
      "કાર્યક્રમોમાં": 9130,
      "ટ્રાય": 9131,
      "દોડવું": 9132,
      "વિજ્ઞાનના": 9133,
      "આગેવાની": 9134,
      "મુલાકાતીઓ": 9135,
      "સાવચેતીપૂર્વક": 9136,
      "ટેન્શન": 9137,
      "યાંત્રિક": 9138,
      "થર્મલ": 9139,
      "ફેરનહીટ": 9140,
      "AR": 9141,
      "Au": 9142,
      "bl": 9143,
      "દખ": 9144,
      "ધક": 9145,
      "પટ્ટી": 9146,
      "જેલી": 9147,
      "જાં": 9148,
      "વધવાની": 9149,
      "ચેરિટી": 9150,
      "થવામાં": 9151,
      "ખાણ": 9152,
      "ખોટો": 9153,
      "પોતે": 9154,
      "મુક્તિ": 9155,
      "યુવાનો": 9156,
      "રિએક્ટર": 9157,
      "પ્રાઇમ": 9158,
      "પ્રક્રિયાઓમાં": 9159,
      "પડ્યા": 9160,
      "હિટ": 9161,
      "અપ્સ": 9162,
      "વિદ્યાર્થીઓના": 9163,
      "યોજનાની": 9164,
      "વ્યવહારિક": 9165,
      "બનાવશો": 9166,
      "ઝોલ્યુશન": 9167,
      "સ્કોરિંગ": 9168,
      "સંસ્કૃતિના": 9169,
      "પ્રકૃતિના": 9170,
      "પૈસાની": 9171,
      "ગરમીને": 9172,
      "એરપોર્ટ": 9173,
      "હળવો": 9174,
      "આંખનો": 9175,
      "સ્થાનાંતરણ": 9176,
      "પરિણમી": 9177,
      "પોલીસ": 9178,
      "વાપરવા": 9179,
      "એસિડિફિકેશન": 9180,
      "એપોઇન્ટમેન્ટ": 9181,
      "રેઝ્યૂમે": 9182,
      "પારદર્શિતા": 9183,
      "વરાળ": 9184,
      "સંકુચિત": 9185,
      "નાળિયે": 9186,
      "(-": 9187,
      "SQ": 9188,
      "ser": 9189,
      "આજના": 9190,
      "ઉતાર": 9191,
      "એજન્સી": 9192,
      "ઓથે": 9193,
      "બલી": 9194,
      "વક્": 9195,
      "વંચ": 9196,
      "શર્": 9197,
      "ેલો": 9198,
      "નાસ": 9199,
      "ટેમ્": 9200,
      "લાવશે": 9201,
      "વેષ": 9202,
      "એકમાં": 9203,
      "ગ્રં": 9204,
      "લીફ": 9205,
      "ટીવ": 9206,
      "બીફ": 9207,
      "સોટી": 9208,
      "પુત્રી": 9209,
      "આવકના": 9210,
      "રચનાઓ": 9211,
      "વાસણમાં": 9212,
      "કમ્પ્યુટરનો": 9213,
      "એન્ડો": 9214,
      "સિક્યુ": 9215,
      "પ્રોગ્રામને": 9216,
      "લઈએ": 9217,
      "સોફ્ટવેરને": 9218,
      "આઇલેન્ડ": 9219,
      "સુવિધાઓનો": 9220,
      "હોવાના": 9221,
      "અવાજનો": 9222,
      "ચલાવવાની": 9223,
      "વેચાણમાં": 9224,
      "પદ્ધતિઓને": 9225,
      "વાયરસના": 9226,
      "ફકરાનો": 9227,
      "કમ્પાઇલ": 9228,
      "એન્ટાર્ક": 9229,
      "યુનિટ": 9230,
      "ગતિશીલતા": 9231,
      "ડ્રોપ": 9232,
      "ચેતાકોષો": 9233,
      "ડાયનેમિક્સ": 9234,
      "અખંડિતતા": 9235,
      "ઇન્સ્ટાગ્રામ": 9236,
      "ઝળહળી": 9237,
      "ઉદ્યાનો": 9238,
      "મેરેથો": 9239,
      "હોંશિયાર": 9240,
      "સપ્ટેમ્બર": 9241,
      "63": 9242,
      "sp": 9243,
      "ંડે": 9244,
      "અલા": 9245,
      "અચકા": 9246,
      "આડ": 9247,
      "ઇચ્છે": 9248,
      "ઉભરી": 9249,
      "ગયેલી": 9250,
      "ચારે": 9251,
      "હરો": 9252,
      "૨૫": 9253,
      "માવરણ": 9254,
      "કેકને": 9255,
      "સાદ્રશ્ય": 9256,
      "ન્સે": 9257,
      "મેપ": 9258,
      "વીઆર": 9259,
      "હોઇ": 9260,
      "તોડ": 9261,
      "ભાડા": 9262,
      "અન્યાય": 9263,
      "કીટ": 9264,
      "પેચ": 9265,
      "ઇનકાર": 9266,
      "પીઠ": 9267,
      "પીભવન": 9268,
      "ફેક્ટર": 9269,
      "ક્સમાં": 9270,
      "ફિન્સ": 9271,
      "મહત્વની": 9272,
      "1945": 9273,
      "પ્રકાશને": 9274,
      "કમ્પ્યુટરના": 9275,
      "સ્વીકારી": 9276,
      "એપ્લિકેશનનો": 9277,
      "વસ્તીવાળા": 9278,
      "પરિવહનની": 9279,
      "ભૂમિકામાં": 9280,
      "પ્રેમમાં": 9281,
      "મેળવવાનો": 9282,
      "સપાટ": 9283,
      "ચોકસાઈમાં": 9284,
      "કલ્પનાને": 9285,
      "સદીની": 9286,
      "એડજ": 9287,
      "row": 9288,
      "બરફની": 9289,
      "તૃપ્ત": 9290,
      "સાહિત્યિક": 9291,
      "સંદેશને": 9292,
      "ગરીબીમાં": 9293,
      "ડ્રાઇવરો": 9294,
      "કામદાર": 9295,
      "યુગમાં": 9296,
      "ચેકઆઉટ": 9297,
      "વ્યવહારોને": 9298,
      "નાબૂદ": 9299,
      "જણાય": 9300,
      "બ્લુબેરી": 9301,
      "કબજો": 9302,
      "ખુશીથી": 9303,
      "એસેમ્બલી": 9304,
      "સ્ફિયર": 9305,
      "મશરૂમ્સ": 9306,
      "બાષ્પીભવન": 9307,
      "IV": 9308,
      "ds": 9309,
      "અફ": 9310,
      "અપી": 9311,
      "આશીર્": 9312,
      "ગણા": 9313,
      "ટ્યૂ": 9314,
      "ફસાં": 9315,
      "બ્રિક": 9316,
      "રિયમ": 9317,
      "વાયેલી": 9318,
      "નીચું": 9319,
      "ક્સી": 9320,
      "વિવાદ": 9321,
      "કાચા": 9322,
      "વર્તી": 9323,
      "મોહિત": 9324,
      "સેંક": 9325,
      "સરકો": 9326,
      "ફેફસાં": 9327,
      "ગેલેરી": 9328,
      "ભાવમાં": 9329,
      "અન્યને": 9330,
      "ટિસ": 9331,
      "રાખ્યો": 9332,
      "રંગમાં": 9333,
      "શબ્દોથી": 9334,
      "ડિઝાઇનને": 9335,
      "વિચારવું": 9336,
      "ક્રમિક": 9337,
      "ઇન્ફો": 9338,
      "સ્તાન": 9339,
      "આઇસો": 9340,
      "ક્ષેત્રને": 9341,
      "રમવું": 9342,
      "વ્યવસાયની": 9343,
      "આવશ્યકતા": 9344,
      "આતંક": 9345,
      "ક્રાંતિની": 9346,
      "ૂંટ": 9347,
      "વાનગીઓમાં": 9348,
      "ચળક": 9349,
      "સેન્ટર": 9350,
      "રોગચાળાએ": 9351,
      "જળચર": 9352,
      "પૃષ્ઠભૂમિના": 9353,
      "ચક્રમાં": 9354,
      "આલ્ફા": 9355,
      "સ્વીકારવામાં": 9356,
      "રાત્રિના": 9357,
      "ફિલ્ટરિંગ": 9358,
      "ધ્વજ": 9359,
      "ઠેર": 9360,
      "સેમસંગ": 9361,
      "ફ્લેશલાઇટ": 9362,
      "છદ્માવરણ": 9363,
      "કન્ટ્રોલ": 9364,
      "દમનકારી": 9365,
      "અલંકારિક": 9366,
      "એસેસરીઝ": 9367,
      "પરમેસન": 9368,
      "SQL": 9369,
      "સેંકડો": 9370,
      "85": 9371,
      "ain": 9372,
      "bs": 9373,
      "આવર્ત": 9374,
      "એરિયા": 9375,
      "ગરો": 9376,
      "ઝ્ડ": 9377,
      "થુ": 9378,
      "દહન": 9379,
      "કાવ": 9380,
      "કાર્યાત્મક": 9381,
      "િયસમાં": 9382,
      "લોગોમાં": 9383,
      "નિયો": 9384,
      "મોર્": 9385,
      "જીએમ": 9386,
      "મુદ્રા": 9387,
      "રિચાર્": 9388,
      "તંબુ": 9389,
      "મોડેલ્સ": 9390,
      "લેખનું": 9391,
      "બનાવેલા": 9392,
      "મળેલા": 9393,
      "ત્રીજી": 9394,
      "વ્યૂહરચનાને": 9395,
      "ગણતરીઓ": 9396,
      "દર્શાવતા": 9397,
      "ટુંબિક": 9398,
      "ener": 9399,
      "ક્રોનિક": 9400,
      "ચમકી": 9401,
      "રિંગ્સ": 9402,
      "ઇન્ટરનેટનો": 9403,
      "રસોડામાં": 9404,
      "વજનને": 9405,
      "સ્માર્ટફો": 9406,
      "બાબતોને": 9407,
      "સદીઓથી": 9408,
      "કૌટુંબિક": 9409,
      "મગજમાં": 9410,
      "લેબલવાળા": 9411,
      "કુટુંબના": 9412,
      "પદાર્થની": 9413,
      "એન્ટી": 9414,
      "નિષ્કર્ષમાં": 9415,
      "અટકાવી": 9416,
      "સ્રોતોનો": 9417,
      "કિંમતી": 9418,
      "સૌંદર્યલક્ષી": 9419,
      "સૈન્ય": 9420,
      "ડબ્બા": 9421,
      "ક્લસ્ટરિંગ": 9422,
      "જોગિંગ": 9423,
      "માંગીએ": 9424,
      "ઇન્સ્યુલેશન": 9425,
      "નિત્ય": 9426,
      "ઠરાવ": 9427,
      "દુરૂપયોગ": 9428,
      "800": 9429,
      "95": 9430,
      "sal": 9431,
      "કસોટી": 9432,
      "ખિત": 9433,
      "તસ": 9434,
      "નય": 9435,
      "મલ": 9436,
      "મંચ": 9437,
      "યક્તિ": 9438,
      "નાઇલ": 9439,
      "તાઈ": 9440,
      "કાવ્ય": 9441,
      "ગોન": 9442,
      "ક્યૂ": 9443,
      "પ્રતિરો": 9444,
      "નિયમનો": 9445,
      "ઓળખે": 9446,
      "વૈયક્તિ": 9447,
      "શીખવાનો": 9448,
      "લેખકો": 9449,
      "કાર્ડિયો": 9450,
      "આનંદી": 9451,
      "ટૂર": 9452,
      "દેશભર": 9453,
      "ઝેક": 9454,
      "દર્શાવો": 9455,
      "સ્ત્રોતોને": 9456,
      "કુશળતાઓ": 9457,
      "પર્યાવરણની": 9458,
      "પ્રવૃત્તિઓનો": 9459,
      "ખેડૂ": 9460,
      "ટાઇટે": 9461,
      "શ્રમ": 9462,
      "પરિવહનમાં": 9463,
      "જેટલો": 9464,
      "ઇન્ટરનેટની": 9465,
      "મિશ્રણમાં": 9466,
      "સંતોષને": 9467,
      "બાળકોની": 9468,
      "પાછળની": 9469,
      "વહેંચી": 9470,
      "પ્રયત્નોને": 9471,
      "લગાવી": 9472,
      "ડૂબ": 9473,
      "મૂર્ખ": 9474,
      "સીમાચિહ્ન": 9475,
      "પ્રીહીટ": 9476,
      "ખોલ્યો": 9477,
      "સુખાકારીને": 9478,
      "ક્રાફ્ટ": 9479,
      "દુર્લભ": 9480,
      "ફ્રન્ટ": 9481,
      "વિશ્લેષક": 9482,
      "ટ્રાન્સમિ": 9483,
      "ડાયનેમિક": 9484,
      "યુક્તિઓ": 9485,
      "ઉપભોક્તા": 9486,
      "ક્વાર્ટર": 9487,
      "ખેંચાણ": 9488,
      "મેનીપ્યુ": 9489,
      "વંચિત": 9490,
      "der": 9491,
      "gle": 9492,
      "આઇડ": 9493,
      "એડ્રેસ": 9494,
      "ઘટી": 9495,
      "જલ": 9496,
      "જર્સ": 9497,
      "ડાર્": 9498,
      "સતા": 9499,
      "નીલ": 9500,
      "આપણો": 9501,
      "લેબ": 9502,
      "હોમો": 9503,
      "ડેબલ": 9504,
      "ડેવિડ": 9505,
      "જીરું": 9506,
      "શોટ": 9507,
      "સરખી": 9508,
      "સોલર": 9509,
      "ગીર": 9510,
      "ઉત્તરી": 9511,
      "પીએચ": 9512,
      "યુવા": 9513,
      "જેમની": 9514,
      "ખ્યાલને": 9515,
      "જુનિયર": 9516,
      "માણ્યો": 9517,
      "વરુ": 9518,
      "બંનેની": 9519,
      "અભિનય": 9520,
      "એલ્ગોરિધમનો": 9521,
      "ભેટો": 9522,
      "સફળતામાં": 9523,
      "સામેની": 9524,
[...]
